[PAD]
[UNK]
[CLS]
[SEP]
[MASK]
,
.
và
của
các
có
là
trong
cho
được
với
đã
người
không
công
một
[UNUSED_256]
(
)
để
những
tại
về
năm
này
-
đến
động
hiện
ở
Nam
đồng
trên
nước
ra
việc
từ
:
khi
đầu
quan
định
đó
Việt
vào
“
”
thể
nhiều
số
thành
sẽ
bị
làm
cũng
ngày
sự
nhà
dân
nhân
gia
;
cơ
như
chính
hàng
thực
trường
phát
vụ
hội
học
thông
hợp
chỉ
chức
sản
hành
phải
tế
thời
lại
nghiệp
cao
ông
tác
lý
nhất
viên
hơn
theo
triển
giá
sinh
điều
trình
tỉnh
tư
đối
##.
mới
bộ
dụng
cấp
Quốc
án
tiếp
qua
còn
đang
xuất
lượng
tăng
Bộ
kinh
dự
xã
Công
biết
Trung
kết
nhận
hình
...
doanh
sau
đi
điểm
tin
quốc
giải
##-
đề
toàn
chủ
thế
bảo
an
địa
cùng
năng
lực
nhưng
con
tổ
2
thì
cầu
đường
báo
do
xe
quy
Hà
phương
trước
tôi
mà
thị
tạo
dựng
nay
thống
cả
khu
quả
rất
giao
pháp
đạo
tới
tâm
Nguyễn
thi
lên
quyết
tháng
tình
thu
hoá
vực
tra
xây
Theo
nên
hoạt
tiêu
giới
khai
/
Mỹ
độ
lớn
cuộc
vị
cách
tục
gian
sử
đây
khách
hai
phòng
trọng
hệ
hiệu
tập
1
phần
tham
đất
đại
chất
trị
tiền
3
mạnh
liên
Trong
cần
tài
trưởng
tự
vẫn
nhiệm
khác
thương
thức
mình
phẩm
vì
bản
nói
ty
ý
sở
Nội
chưa
nghị
huyện
bệnh
tích
Văn
triệu
điện
tỷ
mặt
đổi
lần
quyền
phố
nhiên
thủ
trung
chế
bằng
ảnh
đoàn
rằng
máy
diễn
anh
Chính
đội
văn
đơn
sách
kiến
dịch
tịch
Chủ
bán
##́
##n
đưa
TP
tính
sát
thường
chiến
ngành
biệt
lịch
giảm
##i
kiểm
yêu
vấn
Tổng
##̣
phạm
tốt
sống
bạn
phủ
Bình
Thủ
cáo
thấy
chí
ứng
chuyển
chúng
ban
gần
hoàn
quản
đánh
nghệ
vi
diện
xử
trở
bàn
đạt
Anh
tướng
kỳ
trợ
khoảng
khó
thiết
đình
đấu
quá
em
mức
biểu
cứu
nào
lợi
vừa
luật
truyền
thứ
hộ
lập
trẻ
tuổi
##ng
hay
du
đặc
hoạch
hướng
giáo
5
tượng
4
gây
nhập
bố
loại
ngoài
giữa
vệ
tiến
bất
sáng
Đại
Hội
cảnh
bà
bắt
Các
kiện
dẫn
Thanh
giúp
ăn
trí
đảm
sĩ
cá
giờ
quân
bình
mua
Nhà
phục
sức
nguyên
họ
chuyên
dùng
kế
Tuy
đều
UBND
Phó
nguồn
tổng
thuộc
biến
vùng
tiên
nội
mạng
biển
–
thêm
bên
giữ
Ban
mang
lãnh
nơi
thư
vậy
hoặc
nông
Minh
?
Đảng
chung
phí
Ông
trực
vận
chương
ta
vốn
khiến
trang
tranh
thanh
tìm
10
ký
góp
mục
hạn
chi
từng
cảm
rõ
cán
Bắc
viện
##t
xác
Hải
cô
lao
Thị
chứng
Đông
chuẩn
nâng
hỗ
##̀
minh
phụ
liệu
6
trận
thuật
tử
đô
bay
so
Sau
Sơn
bao
nhau
tay
An
##c
hưởng
Quảng
muốn
hết
nữ
khẩu
nạn
vật
phân
mở
lời
thay
nhằm
khí
Thành
bóng
dục
cổ
Đồng
cạnh
mỗi
luận
đủ
nếu
chia
bỏ
USD
dài
chống
phối
tên
##m
trách
thân
xét
đoạn
danh
môi
gặp
Đức
Nga
tiếng
đẩy
mô
khăn
xảy
chọn
ngân
gì
uỷ
chị
đúng
trả
tuyển
mại
tàu
trạng
nghiệm
xem
tiết
áp
rộng
cực
Một
Long
đốc
đá
Thái
đóng
dung
lĩnh
đặt
yếu
Ngày
đẹp
phía
khả
cung
mọi
'
tố
gồm
giả
ngay
2018
sân
cuối
Trần
cường
Hồ
chiếc
phép
nhỏ
tương
tuyến
luôn
mất
cố
sẻ
lưu
cây
mẹ
thuận
7
tinh
lúc
sơ
kỹ
Hoàng
khoa
sắc
ương
Dương
Những
đời
thôn
hồ
nhanh
đảo
Đây
di
nhóm
tuyên
rồi
Xuân
Sở
Nhật
Liên
kể
phong
tấn
sao
giám
tải
sang
Trường
Lê
cửa
bài
huy
tối
càng
lễ
hậu
trò
nghĩa
xuống
Tại
cư
trái
Tây
Uỷ
8
dù
cộng
hữu
Trước
nữa
hoà
cử
bởi
đăng
Ninh
thắng
ít
Với
T
đa
thiện
kỷ
chuyện
độc
##h
##̉
vô
nghiên
Bản
chơi
vàng
cụ
hỏi
soát
căn
thuốc
thuế
ghi
nghiêm
đáng
mắt
khẳng
gọi
nuôi
tất
Người
lệ
trao
chiều
hồi
vòng
##&
quận
toán
hại
nguy
châu
Phú
thần
cứ
dưới
Hoà
Tôi
thấp
mưa
nền
thảo
nổi
thúc
ngoại
y
cải
##u
Hiện
tội
9
khởi
ô
họp
Ngoài
thiếu
Điều
biên
Từ
Khi
ca
tuần
riêng
đào
cái
thích
suất
lấy
phản
bổ
nghề
bước
vọng
ninh
tưởng
khá
2017
phá
Lan
tiện
Bí
câu
đầy
phim
hoa
phù
2019
môn
mùa
hạ
Không
tầng
gửi
tai
phiên
Đà
Luật
thoại
niên
lòng
thăm
hiểm
phường
buổi
vai
lớp
phạt
C
Ngọc
20
Quang
vững
Nghị
chấp
sâu
vượt
Giám
trì
tín
Chí
chồng
Giang
hút
hiểu
chân
lộ
Phát
Nếu
khoẻ
Á
Dự
ba
xúc
Tổ
đứng
Phòng
Hàn
12
khoản
Có
đàn
HCM
chạy
gái
nằm
ổn
hôm
thuỷ
chết
thẩm
chỉnh
giai
ưu
dành
vợ
nghỉ
mẫu
đông
đáp
dầu
dưỡng
xuyên
nhìn
ai
Tiên
sông
2016
dễ
thí
thác
miền
Năm
duy
sớm
chiếm
bé
chú
Báo
đêm
đồ
thưởng
Nguyên
phóng
Nẵng
lo
Phạm
30
tô
nhu
mong
tộc
chịu
Để
khỏi
vui
Tân
m
Thông
sư
Việc
màu
trồng
kéo
nhạc
Bên
nối
nó
tốc
phút
Kỳ
Đoàn
Hoa
giấy
cháy
Kim
Chỉ
biện
Cục
Nhưng
xa
nặng
Pháp
xin
chữa
Vũ
ấy
vũ
##p
A
Tài
Triều
vay
thật
Tết
Vì
ích
15
nghèo
sai
kịp
khắc
Yên
U
Nhiều
phê
bác
##a
nợ
quý
Hồng
Bà
Y
lương
nhấn
lửa
Do
xanh
sửa
Bảo
tặng
bày
Tập
lâu
hạng
khám
đảng
Thế
Châu
##vn
Thương
11
quán
gắn
tái
tỉ
phiếu
Nhân
chuyến
cục
nóng
trương
nêu
vài
ngờ
nhiễm
Ngân
!
Chúng
2015
tránh
sung
trú
Về
giống
Đến
rừng
kiếm
dấu
chăm
thiệt
lược
Phúc
tạm
Thu
mắc
đón
##s
Đối
mối
toà
thải
buộc
nghĩ
thuê
nhiệt
dòng
chặt
ngôi
Hiệp
niệm
bầu
bức
to
Cơ
cháu
uống
âm
Kinh
xếp
Phương
thất
dịp
nỗ
lựa
nghi
khoá
lượt
tầm
HLV
nghe
cận
đôi
Thường
cấu
Trưởng
nam
song
thoả
Âu
tỏ
cập
liệt
thái
viết
Hoá
Trump
ma
tức
##2
Tuấn
thao
Tỉnh
Khu
Ngoại
trai
Lào
chỗ
chắc
giành
tồn
trời
thiên
Bệnh
khối
máu
cam
luyện
sẵn
B
ước
Đặc
Chi
Hai
hạt
kê
Đình
hải
bảng
lái
dư
hãng
loạt
H
Tiến
vong
áo
##nh
đau
bền
đua
bão
Hùng
sạch
ánh
đỏ
tắc
khuyến
hát
siêu
Thứ
rác
rút
dạy
100
phổ
kích
trải
Dũng
binh
Cảnh
Mai
thử
chợ
dạng
DN
quê
làng
thụ
đổ
đột
khủng
quanh
nhớ
ASEAN
tuý
núi
ủng
thẳng
Hưng
khảo
sỹ
Vĩnh
Ba
Quân
ngăn
đàm
gió
coi
Như
hoạ
cân
nhờ
ấn
Xây
lạc
sóng
Thời
lệnh
sắp
Linh
da
Viện
phán
Lâm
Chương
nguyện
Biên
Gia
sàng
sứ
Cũng
chóng
trào
thiệu
Dân
Khánh
đích
tận
Vụ
18
chờ
lãi
lai
50
phó
16
may
quay
cầm
truy
dừng
trụ
S
Hạ
Giáo
đâu
hấp
dây
Cụ
mật
mừng
sóc
mặc
duyệt
lá
cắt
Đó
+
thầu
gốc
dõi
THPT
cánh
suy
tiểu
13
Cùng
Vietnam
quần
tờ
ngũ
Kết
Nghệ
##y
can
Thuận
Và
cấm
khán
M
14
suốt
2014
nổ
Cup
thừa
niềm
Còn
trăm
thoát
màn
đọc
Nông
Lý
Hương
vé
bồi
Quyết
chứa
lũ
Đầu
mẽ
thầy
Du
bãi
nghìn
quà
xung
Phan
Điện
tạp
ngại
trấn
Cần
##T
thậm
tri
Huế
Thuỷ
Độ
Syria
V
quen
hương
kém
cũ
địch
Giải
bánh
dữ
thịt
xăng
nắm
Sáng
Thực
món
bào
quảng
km
Phong
phúc
phi
cha
tôn
Lễ
trật
La
vẻ
ha
giác
miễn
lưới
chứ
đương
tiềm
Qua
Quản
mã
chậm
nhẹ
chở
Hàng
Quy
thú
2020
dần
Trên
Vân
chục
kêu
Ngay
trắng
in
nộp
sắt
nắng
Khoa
Sự
chặn
thách
Sa
đợt
Đào
chẽ
ngồi
phận
##VN
rơi
Trọng
hài
Tag
17
Định
Tư
tù
mời
lan
giản
Đài
chắn
bờ
Cô
##g
Trang
nhắc
GD
lỗi
sữa
khẩn
thẻ
bối
N
bật
gương
40
hiệp
Bác
tuyệt
Cộng
thiểu
huấn
Giao
Cao
ngắn
tim
25
SN
rà
24
##N
Đội
Nha
bạc
xấu
nhật
0
gỡ
Được
lối
##o
Thiên
bại
đỉnh
huyết
khúc
ngừng
liền
Biển
Huy
hôn
ĐT
ĐH
đẳng
đỡ
dứt
ngủ
lục
19
xu
rau
khích
hy
kim
ràng
mộ
mạc
lạnh
phấn
Iran
Dù
D
tuy
trạm
quỹ
ung
kg
kênh
đòi
khổ
Kiểm
chẳng
chụp
linh
Thượng
mưu
lẽ
hầu
giàu
đê
hè
Lao
kiệm
Vinh
chấm
the
tệ
nhũng
21
đem
tấm
súng
lợn
Tuyên
Thắng
bí
TNHH
cơn
VOV
Đề
ngư
Toàn
Phước
ơn
đức
huỷ
lắng
gói
Hữu
đen
Chiến
sạn
rượu
Trương
trưng
phức
2013
lâm
EU
Mô
băng
lạ
kháng
kính
bậc
đãi
Vương
HĐND
trúc
ngập
mềm
thua
thơ
Bùi
Truyền
Số
giật
buôn
Giá
gắng
dương
22
mơ
Phi
sợ
Kế
cảng
thuyền
chiếu
khắp
dựa
kịch
Võ
lẫn
tươi
đai
200
Cường
đoạt
kẻ
ngang
bang
đoán
##3
Cai
rời
lẻ
cựu
chào
rào
Mặt
giảng
xong
Học
nhuận
lúa
khuôn
Cuộc
The
dàng
ngôn
trừ
Mặc
doạ
ngược
hạnh
thai
Malaysia
trúng
hơi
World
##23
chữ
ngàn
lắp
bắn
gấp
hào
Singapore
pha
xâm
đe
khiển
toả
CLB
Lương
bè
mạch
Duy
23
mái
VN
K
BHXH
Chiều
60
chấn
tôm
Lộc
Đỗ
tá
căng
chăn
đám
ngữ
Hậu
thập
Họ
xế
Ngãi
vinh
Bài
L
uy
mê
Thọ
khen
mấy
Park
Toà
Hợp
TPHCM
Cầu
gỗ
nửa
Facebook
hùng
cà
mỹ
P
cuốn
Mỗi
Diễn
kiên
túc
Nghĩa
hiến
Tiền
chúc
gà
thôi
Cách
vườn
Tiếp
Thơ
thận
nét
500
tháo
Sài
xứ
đứa
Chị
Tĩnh
non
Đa
##1
Indonesia
thượng
đèn
trại
lãm
iPhone
Bạn
Lai
hô
TTXVN
trữ
Đặng
Trà
trùng
Đường
bạch
GTVT
ấm
gạo
yên
Con
hoàng
Campuchia
Gòn
PV
kiểu
khoán
đáo
đợi
Lãnh
ép
túi
cướp
khung
New
giỏi
kèm
giết
CP
chạm
đài
hãy
Đinh
Tâm
sàn
Doanh
Philippines
100%
Cổ
Ngô
thổ
thuyết
thù
tảng
lành
dao
Mạnh
chốt
bò
chuỗi
tán
phú
vỡ
ro
VTV
ly
Tàu
Bằng
I
##A
Bởi
ẩm
lô
sổ
Hồi
2012
cười
Thổ
Tình
giam
kho
bom
Donald
triệt
rủi
cát
tụ
Hơn
sốt
Tất
chảy
huống
trộm
ẩn
huynh
dông
bạo
khấu
góc
ven
Apple
X
s
đền
trích
hẹn
of
cản
tung
buồn
tang
mãi
300
Tháng
City
lừa
Hành
ngã
League
##e
rối
Thể
vướng
viêm
cặp
cậu
lở
đập
hứng
già
Tấn
bê
G
nhi
Quỹ
tật
70
Lực
Nhĩ
khô
E
tràn
xóm
khiếu
sắm
than
mắn
cương
vết
nhánh
TAND
nỗi
29
nhựa
28
hỏng
đâm
26
ngoái
cột
tiêm
Nhất
27
trốn
thang
hề
hư
Huỳnh
đuổi
Cà
loạn
dinh
mai
Chánh
xoá
ngụ
Australia
Kiên
Cái
Chung
Hoàn
Quan
thép
Xã
dày
dụ
đốt
Vào
lỗ
Tùng
lắm
Tin
hoảng
Nhiệt
Tăng
bến
TS
đạn
đậu
nhãn
##CP
rẻ
Di
ống
hiếm
loài
ghế
hoang
##C
thờ
cưới
lậu
thảm
chút
Man
Lúc
Cả
phẫu
quên
Nai
video
trục
điển
tổn
tiễn
cờ
ga
ngọt
Em
dị
ngừa
hưu
Loan
bữa
mực
tông
Hình
hoả
Thừa
dậy
não
xuân
Lợi
Tiểu
hoan
pháo
tuỳ
hồng
Quỳnh
Sinh
canh
Quý
IS
cú
and
Thảo
Bến
##km
ngưỡng
Tính
bia
củng
Riêng
Tham
treo
xả
cơm
Song
##5
2011
bó
bá
tàng
Thư
35
ngầm
tả
mát
Hệ
lãng
Ukraine
Trịnh
sôi
Là
nhượng
Cẩm
lọc
Thống
TTO
Mới
1.000
Real
chùa
xứng
cốt
Trị
Tam
bám
##G
Điểm
hứa
Giấy
sạt
tường
bù
Đắk
Phượng
vươn
hộp
Cho
trông
đươ
hâm
dược
dâm
tuân
ngon
nhắn
ngạch
mây
mũi
Ai
kia
dáng
mỏ
lít
viễn
ôtô
thở
làn
ruột
điệp
F
gìn
kín
chủng
khuyết
tiếc
khâu
Washington
thả
BHYT
xưa
đo
xương
Lịch
ví
bốc
camera
Samsung
tuệ
tóc
diệt
thùng
vơ
Dung
##30
Lưu
mệnh
đậm
trừng
Nữ
Hoài
hẳn
##ĐT
Hằng
nhiêu
đỗ
Hang
miệng
niêm
Tô
mầm
45
mốc
chối
##bây
Vậy
mso
khoáng
Canada
vĩ
sút
gọn
tu
Thăng
2010
nại
cứng
Israel
bụng
hầm
mùi
90
lạm
Trao
nấu
gan
Google
bơi
cống
Đất
dám
vỏ
Danh
Huyện
mổ
giáp
dọc
80
Internet
II
nhảy
tân
TN
Phụ
CSGT
##7
50%
Madrid
Chia
ảo
Đô
bốn
Phần
quang
Vận
Địa
##8
cổng
Nhi
Sản
Dầu
rửa
Cty
ấp
##NĐ
điệu
hằng
tốn
Cát
Q
cụm
lang
Nhóm
trứng
Chấp
Nhận
tết
Xe
Tháp
trầm
32
thăng
đâ
Động
Làm
Đồn
trưa
hàm
Tú
mạo
khóc
phỏng
lệch
cắp
QĐ
Nhờ
Triển
##4
bột
cất
trôi
móc
khuẩn
Bị
bếp
Tối
ghép
tắm
thuẫn
Đ
sót
Huệ
tắt
đạp
Viettel
mảnh
trần
hối
smartphone
cãi
Thiếu
Hiền
khát
Thi
##U
Nói
Đăng
a
Hiếu
ngộ
sa
thô
31
Nước
giọng
chuyền
Bạch
che
chàng
thiệp
Đã
Thịnh
Chu
lò
trà
lọt
tựu
MT
tây
bổng
Mau
Brazil
va
heo
đồn
thoái
01
clip
APEC
THCS
khơi
vời
Đáng
Câu
bùng
##hậm
XII
Vàng
Khoảng
36
ôm
c
400
Putin
##6
Hôm
##9
rèn
Vũng
thự
giấu
lưng
đà
béo
Olympic
vắng
Hạnh
buýt
lầm
cỏ
nghiện
Huyền
nhịp
thói
dâng
yết
lấn
tiê
chó
Nghiên
FLC
GDP
mỏi
##com
đắt
dàn
Gần
Online
hẹp
CĐ
Thiện
câ
vẽ
taxi
Đơn
BOT
khống
bớt
bắc
leo
Ma
gợi
Phật
hiê
hảo
Trí
Trẻ
Xem
Cấp
trống
chừng
Cập
Hãy
Thay
Điển
Thạnh
Tuổi
mệt
LI
nề
táo
Hiệu
gom
hồn
Chưa
giây
Liêm
tan
Cảng
dời
lồng
chìm
dường
10%
ruộng
Vịnh
lây
đới
TIN
Cuối
##ha
lồ
Nghi
150
đừng
xinh
ân
Chiếc
lấp
tròn
TV
Kỷ
thước
QUAN
Kiều
Iraq
chín
hung
toạ
Tự
Nhơn
Jong
BV
Thuý
Cuba
khổng
Sông
vua
nút
soạn
trọn
Thạch
muối
Khách
Tiếng
##TT
rắn
vẹn
phái
xưởng
la
ngươ
Nguồn
vê
Mục
KH
quét
game
HTX
MU
tê
dâu
tách
đam
R
Bất
##d
##TS
kiêm
đắp
Sóc
dắt
Hãng
##D
##NG
dỡ
đ
mù
##B
Phải
33
Nhìn
vang
chu
rãi
ổ
Trái
Căn
##I
GS
biê
củ
thê
vả
lính
gánh
mặn
mâu
34
sánh
Dịch
rải
VietQ
Tuần
Myanmar
##00
pin
Mã
vải
sơn
Thiết
dạ
Toán
lận
nồng
trắc
mét
TX
đán
khớp
nhâ
điê
Paris
cưỡng
Đạo
cỡ
Liverpool
Na
Ánh
giấc
say
ngọn
sốc
lặng
Mexico
đấy
dập
Lạc
thơm
lùi
Nó
đói
Sao
Galaxy
Phía
Hiến
bón
30%
bụi
NN
Mẹ
37
Xuyên
LĐLĐ
York
ái
thoải
Mọi
Liêu
tàn
10.000
rét
Bồ
4.0
phổi
ùn
bề
trươ
Giới
Bái
2.000
thợ
Thuỳ
##League
vitamin
tứ
khói
Obama
cậy
##M
dã
Group
Đạt
duyên
Sư
lơ
Arsenal
Bá
vất
Ca
vỉa
PGS
Trắng
FDI
MTTQ
ngõ
##S
Yến
ném
20%
Khai
Giờ
top
United
hôi
mãn
Chuyên
đựng
u
vương
phế
tĩnh
răng
trọ
Bạc
miếng
Bước
2009
Hy
ngực
sô
khuyên
Phùng
web
2008
##xã
dò
múa
Rất
My
Messi
Champions
Thethaovanhoa
nở
Bích
dọn
lụt
Lần
Bắt
thuần
giường
##un
lỏng
đẻ
Kiến
Phủ
So
Sun
khoe
khôi
lốc
khánh
Mường
Trạm
giày
PLO
Trinh
dính
nhạy
Lập
38
Vị
BĐS
LĐO
Khê
vs
Mức
Lạng
nhiê
đồi
ác
Pa
chai
Ronaldo
su
săn
Italy
Vi
Quá
Top
CNTT
Venezuela
##20
tiệc
vợt
chênh
chua
cáp
bế
bơm
Kong
Tỷ
muộn
Kỹ
nếp
May
Ngành
HĐQT
Sang
Máy
Xuất
thâm
b
trộn
Bỉ
02
Tường
##19
##ing
cẩn
600
long
Tương
tụng
sập
ốc
Barca
Cán
FPT
##/
Tử
chiêu
chim
co
Lệ
TT
gạch
Điền
TW
mm
mảng
PTNT
nàng
2-3
1,5
##kg
PCCC
hang
ao
măng
Trăng
2030
Chợ
Đi
##ầm
55
chẩn
châm
CN
HS
Thuế
Triệu
tour
đắc
Quận
cước
d
tủ
san
đọng
kì
mỡ
lề
Cửa
lí
viê
sét
luồng
Vừa
rạng
Ví
bể
Đánh
đeo
Hong
website
h
##P
dệt
bỏng
Vinamilk
48
lường
Tín
Mùa
120
khoan
n
hụt
chặng
Argentina
suối
trội
##in
bô
ức
sụt
Saudi
Vấn
Sức
Chất
Huawei
mượn
Phiên
cúng
rỡ
trân
xoay
cai
Cá
thoáng
ơ
nhở
thắt
05
Khởi
lân
lứa
Airlines
Trả
t
dồn
VKSND
e
nhầm
KCN
Tre
cắm
ngắm
Vùng
Bàn
CT
kẹt
vở
Dưới
Sỹ
Nhưỡng
Quyền
bông
Kể
gắt
##V
VFF
liều
vây
Hướng
Trực
phun
Barcelona
Lắk
trùm
rực
##22
Thêm
39
container
Sử
chém
70%
Khối
xạ
Lam
III
hoại
dốc
Honda
##TTg
virus
Lạt
Cựu
vâ
London
trâu
hiếp
thâ
lật
hỗn
Xin
võ
NTM
chư
VĐV
AFF
Than
vội
triều
ngạc
gay
Cam
HIV
Games
cm
42
hiển
##r
3.000
TH
Chứng
EVN
bì
Seo
Mờ
dội
CEO
Brexit
lông
HĐXX
ngợi
xách
Hoạt
Tôn
nảy
gián
nát
hoãn
mũ
Cận
LHQ
lão
mồ
giãn
ưa
nghênh
##H
tháp
O
Rịa
ôn
Đêm
Hầu
03
x
Thí
bọc
Trì
Premier
NQ
Reuters
sợi
ám
NLĐ
Cửu
Android
Khoản
nhàng
Trận
NHNN
chè
cồn
nấm
Thấy
bận
QL
5.000
PC
chuột
Tiêu
chinh
mạn
truyện
Agribank
khép
MC
qui
uý
Microsoft
giận
ATGT
khứ
65
##ed
trượt
Huân
luân
bút
Viên
Tuyến
hiếu
Siêu
sáu
SEA
mì
80%
Nâng
nô
Đan
bọn
trinh
euro
oan
##K
800
sáp
dưa
hi
Bé
##er
Chẳ
Toyota
Duyên
Sĩ
Hiển
John
khéo
lõi
mọc
tiệm
mến
nạp
vạn
Năng
đáy
Cố
Khắc
gãy
triê
Nên
90%
Khuyến
đôn
Kiếm
CSĐT
mẻ
Phóng
cạn
Môn
móng
luỹ
phiến
2007
Ngôi
giàn
FC
Đảo
chê
bát
CĐV
NS
bách
100.000
gũi
hái
tráng
thửa
Cung
Hỗ
700
Mông
súc
bẩn
kiê
43
Sân
250
huyền
##x
46
Xanh
Thầy
hà
kiều
váy
mỏng
Arabia
Al
NATO
Thú
Bóng
BKS
sưu
##%
hở
đầm
Grab
lưỡng
phô
Cây
Mourinho
Móng
Sen
Kinhtedothi
lôi
cài
al
cúm
thịnh
Chuyện
đứt
41
Tờ
khe
chôn
mắm
2000
Sáu
HAGL
thọ
Viết
thắn
nươ
Xô
facebook
ráp
Viê
Tuyết
40%
mờ
xi
xơ
tím
dán
Tìm
dũng
nhì
đắn
đĩa
khoảnh
Lee
ngơi
Chinhphu
voi
inch
phu
Juventus
sương
ong
Tạ
đuối
ngự
vịnh
TPP
Bố
đế
VNPT
thềm
04
Tp
lộn
BIDV
Cương
internet
thiêng
Phổ
Tokyo
Giáp
thổi
Tác
Mười
Nhằm
tâ
5%
tơ
ranh
Bảng
Viễn
51
lỡ
Vạn
phe
Trưng
Zealand
online
Phút
XIV
dĩ
khoăn
44
nhẫn
chuối
52
v
tẩy
Moscow
NLĐO
75
##10
bi
Tám
Uông
thưa
Dược
tú
De
hò
nướng
Ô
kề
Nhung
Áo
Vợ
Gió
rộn
kiệt
NH
63
tha
Bảy
VND
Đàm
soi
lăng
Phim
men
Thật
Su
Khải
đúc
hổ
màng
MTV
Mẫu
David
Kon
lâ
Phù
ho
Qatar
49
Bãi
nhắm
vắc
băn
viếng
##UBND
47
xô
Ly
thấu
Đền
Phân
2006
Đẩy
20.000
gác
manh
qu
lê
nã
golf
60%
nứt
g
bỗng
xỉ
xá
ngô
##X
Asian
dải
khoác
##k
hố
đoan
Vòng
Bán
Quán
bảy
nụ
Oanh
San
Khí
Đúng
Trạch
xưng
dịu
email
Bưu
show
lăn
lặn
Thân
XI
Hay
Bách
fan
lội
chả
rẽ
Mở
2025
cự
Lăng
ồn
##seo
ngột
nhan
2021
J
Lục
phiền
Phả
chép
Quả
Đống
nhí
BS
##L
Phố
đòn
thấm
Uyên
tre
loa
2,5
2005
ốm
chuộng
dừa
tần
64
cua
QĐND
lu
cay
##style
ĐBSCL
nôn
ngâm
1-2
Khương
tị
hơ
Làng
láng
Mậu
dồ
dở
Hè
kiềm
rũ
Bayern
Lò
MV
Miền
ĐBQH
ngựa
rỉ
News
54
Tum
hòn
Co
Video
phâ
Vật
sạc
HCV
Âm
sen
BTC
hoài
SJC
dạn
tưới
phanh
đành
Tên
Nơi
xà
mùng
Đừng
phơi
Twitter
Sẽ
Tạo
hoạn
nhọn
false
tặc
Cứ
Afghanistan
dãy
Times
for
ngón
200.000
ngào
Quế
chăng
xông
Đổi
Yêu
vượng
30.000
kem
Tới
##O
LĐ
thạch
tựa
Khang
rủ
CPTPP
cọc
quyến
tạng
hoành
tuyết
thắ
##18
Air
nhé
trễ
Vườn
lữ
Sách
đuôi
bùn
72
im
Ra
4.000
Neymar
cóc
rạp
50.000
quãng
sỏi
neo
thầm
giơ
Cha
rệt
nghiê
de
Uber
Rồi
1.500
Boeing
Thần
Hợi
nhậu
thánh
Vietcombank
PVN
siết
buông
Seoul
##15
Lạp
khoai
cúp
xao
dại
bắp
Vy
trơ
gối
##ch
xích
túng
cởi
Giai
mòn
hàn
hắn
##v
Pakistan
ODA
việt
bội
Mộc
dẹp
robot
mộng
62
Lượng
chanh
giếng
lư
Cảm
IV
Vĩ
Nghe
xổ
Thoả
đạc
Diệu
FIFA
bộc
##và
Tottenham
quyê
Vua
500.000
##cm
nhạt
Vladimir
Xác
mía
Bức
gã
đùa
hạch
Buổi
Kông
Xử
Cổng
110
##HCM
giềng
Chân
Thẩm
đớn
thắp
Gò
Tứ
Muốn
mò
##l
25%
56
Hòn
Cúp
Đam
má
chán
Trời
vành
dối
kè
Nguyệt
vư
nồi
Uy
Chinh
Lờ
TTH
trăng
nghiêng
ớt
##para
TNGT
##êu
Núi
lươ
Chuyến
khốc
lát
vịt
chúa
kẹo
15%
ngưng
gục
##đã
quát
nho
Km
67
chật
Lộ
Chú
pt
chéo
chiê
Mình
NSND
Trụ
bưu
Bank
1982
Grand
vú
Pro
tùng
xen
Khoá
Lại
##Index
bấm
Tri
đạm
vóc
##NH
l
mày
lặp
cốc
Phu
##margin
1,2
Ngữ
Hàm
Vingroup
rung
Giáng
Kiệt
đụng
cấy
thiê
Euro
Windows
gieo
chuồng
James
Note
Bây
côn
ơi
rộ
rao
Ford
bàng
hot
Dư
Nạn
XIII
Pogba
Cư
53
úng
Resort
99
buồng
XH
gas
vớt
1990
Lĩnh
Đôi
KT
on
Táo
ròng
Buôn
kĩ
trăn
Palestine
bồn
dặn
sởi
chay
DL
dạo
hãi
Amazon
Trình
Bô
UAE
Chế
Chữ
nhôm
Trúc
đếm
đèo
vứt
chip
nòng
Đàn
Van
SHB
92
58
táng
xôi
đệm
Milan
2003
nhặt
lắc
Xét
Bát
Tịnh
Thánh
cắn
Tinh
chửi
mộc
karaoke
tước
no
ngoan
khôn
06
vạch
tồi
ào
UNESCO
Chăm
kí
Tuyển
Atletico
Mà
ATTP
Miss
ATM
Loại
còi
báu
điền
Mê
Đằng
Dùng
AI
thủng
mương
tống
quái
nhiếp
ghé
họng
kép
08
k
đằng
68
Abe
bẫy
##Trung
PSG
2022
##XH
##an
Mekong
điên
2004
tóm
khuất
Vượng
ngặt
muỗi
oxy
lộc
thiêu
cành
nén
Trải
Đỏ
mác
thoảng
Đá
bưởi
57
diê
hiền
rồng
Nhạc
bứt
Bầu
VH
bơ
##ớc
Ghi
man
##45
rò
nhường
Quô
đắng
Tạp
vặt
Mi
VCCI
El
85
tạ
vĩnh
Manchester
rô
tràng
Chuyển
Biết
Vẫn
thám
giọt
TTHC
đốn
Dinh
61
2016-2020
Mạch
Cậu
Nhã
Hô
Chùa
Clinton
##-35
King
Big
lùng
AFP
lưỡi
Nghiêm
Colombia
130
cong
Nà
Đọc
Cải
300.000
MobiFone
Diệp
YouTube
Khám
Vietjet
ngọc
Ngũ
chèo
##TB
Băng
Nhì
Ái
vét
nương
95
gốm
1/3
bạ
1/8
léo
nới
chui
2-1
nan
răn
nhộn
Mua
180
rong
LCĐT
phì
Cử
Khanh
Michael
mìn
Plus
chiết
Khuê
ngỡ
xướng
vọt
Ngược
chậu
Phường
Cháy
quầy
Festival
xát
khao
đống
đũa
Le
VI
thối
Hoành
Độc
Khó
Lô
điêu
Đồ
09
Chile
Paul
châ
Hân
dào
tỏi
nghiệt
chiêm
tem
sụp
....
Giữa
##size
khang
tươ
vuông
Bay
Thất
quyên
QH
hê
1-1
ounce
2-0
Land
vã
VinFast
##GB
Vang
##mm
Liệu
##E
nhức
##ếp
CH
Phấn
Dòng
Son
Moon
rể
Bangkok
Vệ
quạt
tụt
FTA
xôn
59
Liga
ANTD
BMW
Biểu
hận
đan
lún
rắc
Hạt
Tràng
VietinBank
kỉ
xót
axit
##cho
bóc
quyển
iOS
Yemen
khoang
nhiễu
bạt
##caption
3,5
350
liêng
Jordan
Bàng
chìa
hổng
Italia
nạo
khiêm
RON
Thiêm
bấy
hao
đè
Giảm
Alibaba
##ết
Tranh
1999
Mưa
Enternews
Quyên
th
ủ
ván
Da
1-0
##0
Ký
Đắc
chuông
Lữ
Rồng
Diễm
BCH
Quất
1975
1995
2%
with
eo
In
6.000
lột
Mạng
Kạn
71
tam
giặt
van
lui
quật
Từng
Gửi
mă
kíp
Nằm
quô
Côn
Z
15.000
Tuất
95%
Đứ
HD
Rạng
##QĐ
BT
hước
##Thái
Trấn
dép
ĐB
Tố
VKS
Diện
##co
Séc
giã
Tiết
né
1992
GPMB
Hyundai
dâ
07
dỗ
mèo
nghẽn
xuâ
66
Chuẩn
Nhiệm
lau
Gi
bă
mài
Nguy
đục
Libya
ngất
hạm
74
Mark
vân
Vinhomes
khử
xoáy
ngoạn
Tehran
Croatia
##ếm
Chúc
VTC
Mazda
then
##on
Chấn
Clip
Munich
album
keo
Đầm
cuồng
Lân
Hào
Bao
73
TMCP
nhát
ráo
Chiểu
khan
lụa
##px
Mong
Th
Moskva
tám
##ri
Đang
mâm
##50
VCK
cuô
bar
Đưa
gầm
Phụng
startup
W
3-4
Cú
CHQS
gậy
1.200
khiếp
ham
Tim
Trách
ghen
Sữa
Trạ
tốp
1997
gặt
Barack
Phối
Khả
##của
##ly
##-2016
Bốn
Thích
81
Lầu
nàn
protein
đặn
mồi
1%
iPad
Oscar
Ân
thằng
2002
88
AFC
sườn
rước
Mấy
1994
##21
40.000
bôi
Binh
lánh
LG
chô
lam
WB
Vô
chốn
Lo
mụn
0%
Jae
Mercedes
muôn
sướng
diễu
nâu
69
cọ
Rõ
dê
Liệt
ngu
lướt
Nokia
Tu
1993
Cụm
Thới
trơn
##ếu
phẳng
Nghề
đắm
vấp
ư
lách
ê
Nay
3%
Tông
mười
Inter
kẽ
Sống
diệu
##Việt
bừng
bong
Cháu
ạ
bóp
Bi
showbiz
cò
##có
xuôi
font
Kho
lốp
nghịch
##ứa
International
văng
900
Peru
ồ
AIDS
chọi
Huấn
ngỏ
trệ
Chắc
hé
cám
Thưa
ạt
vách
79
chưng
sâm
son
Airways
CNN
hăng
TĐ
1998
Ngư
cỗ
tivi
cào
ni
mạ
Quỷ
logistics
tia
bâ
heroin
##man
rễ
##es
Cặp
EVFTA
2001
Góc
cẩu
Kẻ
trán
gen
hán
##b
kWh
vòi
lộng
ướt
xẻ
gai
Dao
set
dẻo
chì
Tai
CCB
Áp
Chàm
140
##Bình
nhái
thạc
o
nhọc
xám
1,3
160
Harry
đính
Vốn
ng
Mây
##ta
Nhấn
Đoạn
Hungary
Dĩ
cháo
Hen
Lang
Xá
tát
Ireland
Lấy
trọt
tò
CNLĐ
đệ
1996
xấ
đinh
Nghiệp
sưng
mịn
Điệp
width
Cám
Cúc
ập
nắp
lót
bẩm
Nhuận
đă
##được
Mùi
chuyê
Trở
77
Dịp
2/9
Sắc
Asia
GB
82
vôi
út
mi
Hộ
Formosa
tấp
CPI
Hollywood
quấy
nhậm
rụi
Củ
bún
giặc
Sony
Khảo
tẩu
91
%
Sanchez
##ấy
##ra
râ
mít
âu
TR
WHO
Vincom
86
MH
Ha
nuối
WTO
mini
West
Golf
##là
xoài
Ki
lén
thục
Sky
ngẫu
2.0
Post
lung
ươm
Trâm
Lớn
thỏ
Gặp
rạch
vun
vaccine
rớt
gạt
Dậu
##Nậm
1980
link
115
nang
mươi
gừng
sào
mập
Hoả
uốn
à
##Y
SV
1991
1/5
NSNN
Sắp
Sơ
7%
Thao
chen
Bitcoin
##us
HNX
##16
XK
ANTT
xì
Giống
76
ách
84
Hoan
Bánh
##ường
Luân
thỉnh
##háo
CNVCLĐ
li
Chống
diesel
bồ
hẻm
Global
ti
Uống
chọc
giư
Chồng
Mang
nốt
www
phở
chén
ngần
Robert
Khôi
Mike
Nadal
##-400
PPP
Chăn
tấu
Ga
Sri
7.000
hoi
30/4
Hoặc
##Huế
Duterte
Go
Bamboo
êm
Hảo
hét
ASIAD
as
Bill
visa
Ung
Martin
Xu
93
87
Đáp
Doãn
rẫy
Suối
xoa
đun
Tích
Quần
giang
Daily
by
tui
Ea
Thưởng
Ranh
ứ
83
One
89
##ệt
giò
Max
bén
nuốt
gấu
bệ
đẫ
Tầm
Màn
khuya
luâ
hức
côi
chót
##Xúc
NTO
thòi
cù
sọ
Federer
PH
ngàng
##na
8.000
Normal
Oai
nóc
is
Arab
vác
Đậu
GV
triết
Merkel
##12
tạc
canxi
xí
đùi
f
nguội
radar
Young
##la
78
cối
##ập
khắt
125
sắn
Cốc
Lâu
Lái
Đăk
nhược
Thuốc
đò
Khác
Mạc
rốt
phím
trù
lẫy
Vinpearl
Kurd
sừng
náo
Giàng
2.500
lũng
nilon
LHPN
00
xay
nức
4%
Old
Fed
Hiểu
##al
Cống
Niê
America
BBC
cẩm
Bão
Green
Chúa
vùi
China
Đôn
98
Đảm
hốt
1986
Johnson
Utd
Ankara
phao
Rang
UBKT
Instagram
choáng
Ho
TU
Bính
mông
nạ
huyê
Star
St
Si
rãnh
WEF
Tướng
Thức
Đen
hãm
suýt
TKV
2/3
KSND
Đời
Pompeo
miệt
Ngài
##en
xoắn
dai
tr
Khe
Tel
sành
##-2015
Cánh
Nguyê
lờ
Cờ
be
##ở
Thắm
Mũi
xào
Suốt
Khá
nghê
Món
Xương
1000
SIM
ch
Đê
170
nha
nhồi
Tuân
Nigeria
nộ
sấy
ngậm
Vài
Vai
á
Kính
TQ
Mẫn
Thai
nọ
bìa
p
##ne
1989
Crimea
chiên
đu
4,5
Ta
file
luộc
Niề
khoanh
id
rách
CTCP
Cực
khâ
SUV
lọ
nhục
sim
xài
##17
5.4
Lá
phác
ngoặt
rã
Xế
Zidane
Tốt
Ngọ
135
AP
rầm
8%
108
tạt
phà
Vượ
Cầm
Pha
BĐBP
##40
rạn
vá
Macron
##um
Garden
1,8
1988
vỗ
Rạch
ủi
giông
2015-2020
Saigon
Play
google
thèm
Tuyền
Hán
thạo
450
Link
Lanka
ghét
Maduro
gõ
rùa
rụng
##ất
##son
xăm
Hưởng
Nhu
Bale
Trân
QLTT
12%
Plaza
Bông
1,6
220
vắt
Cù
tro
bú
Miếu
Dortmund
6-7
liêm
Thuột
CA
##-1
Niên
thươ
nể
Tá
Can
Los
##NONE
nhuộm
nấy
hít
Cạnh
Giọng
Xổ
Guardiola
Nổi
3-0
bừa
đúp
dang
cày
GDĐT
Bổ
Tưởng
lúng
Vành
##F
VP
Show
LED
ghe
150.000
ngài
Mối
Kia
Đấu
Chọn
Jose
sà
Sam
bẻ
BTS
Nô
Nhạ
bã
##Tuỳ
kiêng
1,4
ngạt
##th
4-5
DNNN
##R
Kênh
MW
khiê
Leicester
Cứu
Victoria
75%
thính
Tượng
rập
Maria
Nhớ
TANDTC
Krông
dưng
##trong
Bangladesh
Djokovic
1987
hóa
Pháo
Home
##/11/2018
Trafford
lẩn
Chư
óc
##ấu
hươ
cuộn
##TP
1/4
Tấm
cớ
Đợt
##-3
Cang
thốn
BTV
Toạ
râu
quế
VinaPhone
##BTC
Vui
Phản
mâ
Suzuki
Solskjaer
RAM
Berlin
am
at
Lão
1985
Bờ
Sudan
Thác
kệ
Ri
toa
búp
PVC
TB
Kiev
hấu
Nỗi
run
Li
USS
rổ
nung
Dấu
##do
CATP
ACB
60.000
hưng
6%
lượn
SLNA
35%
Erdogan
Hường
Brunei
dạt
Chiêm
PL
Shinzo
Suarez
VEC
Hi
##tstyle
Kha
Bloomberg
Black
Vấp
gầy
ấu
LS
##14
IX
Vietnamese
sầu
1/2
ướp
liveshow
VIII
Rà
Jack
Costa
xé
Ng
##rót
Rau
##up
##-2018
Giữ
Màu
##/08/2019
bới
##ation
kìm
400.000
Hới
Nuôi
loét
thuô
mg
mủ
##oC
2016-2021
96
xịt
bọt
12.000
##các
##ẩy
ế
cưng
Daniel
IMF
Uruguay
xáo
ngứa
tà
yến
phẫ
Chải
giòn
Thụ
Petrolimex
Forbes
nản
nành
Lớp
gam
##01
Trợ
Vu
EC
##Triều
trũng
105
vu
Nền
Dạ
Vina
thiều
HQ
Phục
Airbus
Ia
Tho
LLVT
đấm
Ali
##-2017
laptop
rơm
sếp
nghẹn
Ngã
logo
cội
cholesterol
Thịt
Angela
Phái
thìa
Lệnh
Chào
Nhàn
ră
Noel
PM
nhuyễn
##13
Tơ
sờ
##ắt
Sabeco
Trưa
mắng
chùm
##Đ
360
phật
Tang
1979
thuâ
tao
hoán
Ka
Miura
Romania
đơ
VNĐ
Tay
đao
CĐCS
CHDCND
ANTĐ
##ửa
ngửa
ngơ
Lừ
Nobel
##/07/2019
Trãi
##MT
Hát
Zika
TDTT
Youtube
Giế
Awards
nón
Giêng
hóc
##11
cúc
Thạc
##Lào
Lã
98%
hacker
OCOP
Justin
Lukaku
Nhập
thắm
NASA
25.000
1,1
khỉ
Giảng
să
Club
##ắm
chớp
Tràm
Ebola
tản
cưa
Rẫy
Sacombank
Đệ
bịt
Lậy
LHP
1984
nhủ
BQL
tăm
Valencia
chảo
Xa
Căng
PLVN
voluptate
bênh
Fansipan
Luis
Viet
ADB
Wall
Quách
Truy
24/7
dè
Pep
NXB
##.000
khốn
Thomas
Kịch
resort
Pleiku
##92
xuồng
Khmer
1,7
sán
Un
Nepal
Sport
sấu
Thôn
phôi
Xứ
vòm
Bè
CR
Nguyen
Tý
##z
737
mỉ
hả
dầm
Láng
xư
Tòng
##để
uất
cược
NG
Smart
GM
8/3
Tom
tảo
ĐVTN
FBI
Mobile
##-2
NĐ
1970
Rập
thản
KCB
##ặng
94
##Q
CAND
ngả
Open
viền
Tốc
Xăng
chèn
##to
toan
##men
HDBank
Salah
Dẫn
xắn
Serie
Hỏi
chợt
Thử
búa
Bê
ĐTQG
##xin
##ic
Audi
hông
Cấm
Eximbank
EURO
Chẽ
Sóng
Techcombank
1/10
Cristiano
3-1
Gea
CO
nhã
xảo
Tức
khoả
Copa
SGK
trau
FED
Nissan
##ma
1/7
Xát
lừng
Cơn
Gương
Bỏ
Tả
Bia
Min
Roma
1.300
gập
1968
George
Biến
2-2
0,5
US
ngừ
##le
ngà
##-2013
Power
Lạ
##center
KHCN
##align
Đám
giục
1983
bọ
chánh
ngán
1972
chài
gân
chững
VIDEO
Gây
nê
align
Florida
BLHS
Đóng
mư
Mái
gâ
OPEC
##7%
Ben
Dẫu
Vọng
quặng
Jakarta
Sputnik
Xí
Hạn
Tan
Zing
##ttachment
Nhắ
trư
MB
cụt
that
mỳ
bỉ
bướu
##q
##không
Đặt
ngắt
nư
đả
truyê
Gạo
Đèo
Thoa
Tống
ẩu
Sergei
Toản
len
chòi
tỉa
Mail
Tà
rưỡi
2018-2019
bực
Tội
xó
Central
3-5
Jean
tí
mãnh
Duẩn
ngây
Juan
1976
Taliban
##BS
Peter
quỳ
DOC
scandal
giỏ
70.000
from
389
80.000
Idlib
128
ả
Camp
97
hủ
Klopp
Kremlin
HA
nhị
té
##,7%
yes
sưa
##-22
Center
nập
Chàng
Intel
2019-2020
Canh
NGUY
liê
1-3
SE
nến
nhốt
Dong
Trươ
Lư
Chín
Đốc
PCI
Griezmann
Tr
trổ
ISO
Khiêm
Lức
THADS
gò
khiết
##-2014
BĐ
Cannes
##da
Ngà
loãng
NTK
Lãng
Liễu
Belarus
##W
dặm
##/10/2018
Trồng
Hotel
Ham
Hiê
nhă
giỗ
Chan
chằng
##ton
sỡ
##land
Đoan
Wenger
Brussels
trâ
TTTĐ
1/6
Theresa
cạ
miện
##Mỹ
BCĐ
méo
Alexander
Manila
tòi
Đỉnh
Bàu
trói
65%
##ực
ngòi
##ảng
Europa
Silva
phàn
HCB
##QH
Hết
Uzbekistan
CB
##với
cúi
khoái
Novaland
thuở
Thiệu
##ông
Rio
##Nhật
CIA
stress
Vitamin
Wi
45%
##net
##ữa
lầy
USB
Algeria
giáng
##LĐ
1981
Vinalines
##/09/2019
Hóc
Trò
NV
Dubai
gắm
Aleppo
Xung
Bulgaria
trêu
tuyê
85%
liễu
102
Phí
girl
24/24
Gươm
DA
Bang
Fox
Khán
Super
Mất
BSR
Pu
5,5
gô
Giả
đọ
##-23
6,5
Hye
will
lóc
UEFA
nguyệt
Nho
Lexus
phụng
calo
COC
trặc
Angeles
biếu
##iềm
240
Đón
ruồi
niệu
Ethiopia
mí
7,5
VPCP
30/6
mứt
hen
Vẻ
võng
##công
7-8
Vỹ
SH
Castro
CV
1978
Sương
Alex
Xi
##ạo
Lavrov
vắcxin
Mitsubishi
2,2
ph
VII
quýt
nhịn
Đấy
lều
Hun
Hanoi
11%
##ml
Jerusalem
hùm
1973
ray
HCĐ
quất
TCTD
MAX
VPBank
ốp
bus
Incheon
Won
AC
Lotte
lù
103
marketing
Gói
Dệt
ỏi
VHTT
1960
Yong
##sẽ
Nỗ
chích
##/2009
Zuckerberg
Dàn
Đương
thề
giằ
Gaza
##ầu
KKT
9%
chập
cabin
dứa
Steve
Tỉ
sá
Xê
thêu
ngao
thung
chuộc
lì
Ecuador
na
mẫn
UNCLOS
Sevilla
thoa
10/10
Mắt
ki
gi
trá
113
nghẹt
Vietlott
vạ
quấn
Tế
gă
##top
quỷ
Luận
##Vũng
Nắng
Quê
2017-2018
Serbia
NCT
Bo
Bồng
bung
14%
##-2012
Tuệ
Cỏ
Saint
GTGT
trĩ
CQĐT
ghê
##ưng
UB
Chức
Dần
dì
rỗi
Hillary
gót
Giây
MP
trè
TGĐ
101
Media
600.000
Sydney
##370
Khúc
24/2
gàng
Hoằ
Sports
like
230
Thaco
Sai
PCTN
ADN
116
line
lựu
has
gang
ếch
bụ
##3%
Rooney
Giú
â
5/9
Wales
tuô
VPF
##kV
lay
5-6
ngóng
Lionel
sòng
quây
xua
Gà
chă
Gold
hit
ASEM
vãn
đù
Jolie
Nou
diều
Giàu
1945
Damascus
Phạt
250.000
Chạy
rảnh
Thơm
Louis
Chris
nhăn
##tại
##/2013
miếu
Tày
PT
lanh
xiếc
1974
Tour
váng
OceanBank
miên
Mỏ
0-0
HTC
bikini
lửng
Pharma
Everton
lầu
South
BHTN
FA
Texas
Kháng
Vietinbank
Sâm
CCHC
9.000
GAS
Cuốn
Gates
Rừng
phiêu
hoay
BVPL
TPBank
##/9/2018
##út
ĐÂY
mau
ngục
##il
320
HP
Yonhap
##ỗ
##Tân
##ốc
##left
sum
miêu
kẽm
Thẻ
Yang
Han
3-2
Mơ
Tặng
Store
1.600
Panama
Yamaha
Village
Business
Diên
sưởi
Kuala
Face
Khung
model
mép
Zalo
đàng
chiêng
Me
thốt
18%
LĐTĐ
nh
TC
ACV
Bahrain
Tóc
nă
##Ronaldo
Jones
SXH
tưng
##ro
##:
##ắc
bầm
Nhị
ngùi
sẹo
Góp
bẩy
mải
Best
##9%
nần
Diego
Ni
Hotline
VNA
13%
Lưới
3.500
TNCS
gật
khoát
99%
Luyện
acid
Tần
bin
##ka
xốp
1969
ầm
##/11/2016
5-7
cộm
trút
Quỳ
Đẫy
Xiaomi
said
1977
##MP
##Thuận
##/2010
Delhi
check
giun
dươ
VAT
##-20
##25
Antonio
##ấp
Lumpur
ngói
##/10/2017
Ngồ
cõi
muỗng
Chữa
vẫy
Mộ
Napoli
tẩ
Cu
Rashford
1.400
Asanzo
Kerry
rưng
bồng
##ies
Lố
môtô
Prime
TĐC
BXH
rằm
Bkav
Hills
carbon
UBTVQH
Metro
Vinmec
Coutinho
Camera
Juve
xít
quia
##ồng
##ia
INF
XS
Style
Ngôn
Jin
##ca
xộn
175
Royal
2,3
AS
hâ
Fidel
lười
Timor
fanpage
ngấm
Cook
National
8-9
Nụ
2050
bèo
oz
Kane
đẽ
spa
Email
Thoại
Mật
##Hà
chớ
16%
se
mượt
HN
##95
##family
Tower
chạp
noi
CNVC
35.000
##24
nhổ
nhang
rốn
CNC
XNK
GT
Palace
Sergio
Joe
lon
##ránh
Iceland
Hoạ
CX
2011-2015
gội
op
xùm
nghiền
thon
nhằn
tụi
điếu
VietGAP
xê
chướng
ngách
RT
Crystal
lợp
15/8
Asiad
két
Spa
loay
shophouse
phồng
IoT
Capital
##height
Lu
Scotland
Biệt
17%
liêu
##-16
##2%
chốc
Idol
##right
##một
Nicolas
##-2011
##ối
Watch
Yahoo
rán
##-5
nặc
Tiệp
Minister
##ềm
cươ
ve
laser
2,7
kiêu
Bửu
Vàm
thà
muô
xước
Kazakhstan
Kyo
sedan
Slovakia
##/12/2017
BVMT
Gai
Riverside
##-8
nhuần
mồng
Vinaconex
tẻ
phớ
112
nguô
níu
William
Cẩn
##Nam
Mù
ben
Street
kẹp
##f
nêm
Czech
nếm
mẩn
Ngự
2,4
Angelina
Be
vờ
hiên
Geneva
phông
nú
1/9
mận
##TH
ml
Thìn
đậy
Kevin
Viêm
Cồn
To
##tlqbotconten
Next
30/9
Gian
Red
##.2017
chắt
CMND
Lên
Mega
HOSE
gồ
xú
Phiếu
nạt
Gala
quyện
oà
DNNVV
##1%
Assad
dằn
##li
CC
Golden
Mãi
20/11
Phẫ
mênh
##CN
Bưởi
nơ
Osaka
phồn
Qualcomm
Huynh
3/4
đôla
Richard
550
Rome
##-19
Hạng
kèo
Nàng
Model
GĐ
Rodriguez
##-15
suôn
nhai
##-2010
Luôn
0-1
12/6
mốt
Nm
190
nhét
quẩn
huyệt
5-10
đư
Khẩ
Nhiên
##iết
Hổ
Gạc
8/8
Khẳng
trồ
pho
NK
##/11/2017
He
Monaco
-1
Thăm
Lựa
##Nguyễn
triền
ì
Nghĩ
##6%
Lũng
Guardian
gáy
VHTTDL
condotel
1.5
Lọc
HĐTV
Dạy
120.000
##uột
tua
Lũ
cấn
Sea
type
Răng
Ajax
27/7
650
Choi
chói
Hazard
##/5/2019
ngó
Đạm
97%
Conte
gộp
THA
Cự
TK
úp
Sunshine
Chạp
tru
thệ
NA
Latinh
1.800
1954
23/9
Đế
dioxin
104
Scott
Kê
GPLX
Murray
4/7
##ẫm
ut
Ramos
114
Bù
xỉu
Thục
selfie
Dmitry
800.000
LĐBĐ
khă
ngổn
sit
Ngạn
##-300
Ph
Abu
Xó
750
Index
SCIC
260
SVĐ
ngời
##35
28/6
QLDA
Eco
Emmanuel
Beach
##de
sex
reo
Thép
Thoá
giă
##cũng
lẻo
2023
nhào
Snapdragon
Bin
Dữ
Chang
DTTS
Day
11.000
phách
App
KN
1967
KTS
gym
##ni
sexy
NDT
Xoan
##Fi
15/7
##go
Travel
Aguero
15/9
30/8
thóc
##alt
ru
et
chuâ
lán
Thì
Mão
toát
mớ
ổi
up
SeABank
Mác
Điê
3,2
Martial
Mbappe
VnExpress
năn
hòng
Villa
107
thă
24/6
tuỷ
Sửu
massage
vầy
trót
Hyun
Chevrolet
shop
Mac
TQĐT
2011-2016
Baoquangngai
Rượu
đố
bấ
210
VIB
##bottom
BVTV
Bali
Khổ
Quyến
Motor
##va
me
khóm
4-0
Mâu
11/9
sục
2,6
##tin
Netanyahu
QR
khuấy
##is
LĐLĐVN
31/8
Mart
Cừ
cộ
##ần
26/9
Giấ
123
dăm
Mohamed
mỉm
Mo
rơ
##VT
TMĐT
xiết
Banking
##/8/2018
20/9
BVĐK
Ji
28/8
##out
118
le
Rodrigo
5/6
Đo
metro
Sung
1971
Nét
2.5
129
Bush
280
chệc
view
Ch
tràm
##chắp
##/6/2019
Danang
ICT
Ocean
futsal
Họp
19/8
##ật
6-3
Modi
mịt
##/01/2019
trô
Gaal
phai
hân
2016-2017
quăng
bợ
106
OLED
buô
cuốc
27/6
HO
##name
16/9
Giuộc
Thâ
át
22%
VIP
##ải
##người
casino
nhối
nhả
Bom
Nick
chơ
##về
2,8
Mèo
31/7
26/7
Bồi
Thuyền
18.000
1965
support
26/6
vơi
vuốt
rỗng
Thập
múc
##55
Blue
Gareth
sạp
7/8
25/6
r
Williams
##-2019
Gateway
Tận
Mosul
dột
kình
Quay
Website
phượng
13.000
20/3
Thám
vỏn
##ốt
chà
141
20/10
DJ
House
Kuwait
##el
1.700
Eric
4/5
17/7
Cướp
126
##ngày
dẫ
Morning
UAV
Bă
##–
Lù
1.100
Sanh
##Benz
270
quâ
DS
rêu
BĐKH
Japan
nhô
##kíp
Becamex
20/8
Game
Va
155
##/4/2018
Noo
109
21/6
20/7
Sù
4.500
Masan
10.0
sảnh
JICA
are
##di
##ba
VinMart
KL
mồm
găng
25/7
VAMC
sáo
370
Petro
Bernabeu
14.000
Hill
lươn
cau
7/7
Made
##ov
ID
gram
tớ
Khen
Quoc
Music
4-6
gu
TNMT
138
Mr
NHCSXH
vữa
sặc
4-1
Nhựt
trướng
##-4
117
2/10
Phá
SMS
##ry
bướm
Gã
VAR
Sapa
Thôi
15/5
live
##/01/2018
Gắn
Ryan
26/3
##ya
Cột
Voice
Vietnamnet
thiền
IPO
yoga
23/7
Marco
Hari
Brad
##Trong
nhỉ
##Long
15/3
Carlos
6-4
Dragon
total
Chiêu
TTCP
khăng
UN
riết
sò
2,1
hệt
nhĩ
rượt
Vietravel
##60
Alexis
tă
111
Legend
Qu
hụi
Hung
##rình
##/10/2019
146
Tầng
cõng
TI
##off
On
19/7
96%
ngáo
17/8
thẳm
sú
BRT
oán
Robot
Chờ
Sàn
Houthi
Khoảnh
##Công
dong
kali
cafe
1,9
băm
Series
khét
phích
LB
##05
table
Leo
nem
##/2007
18/7
Béo
Nhâ
cuống
700.000
Slam
đốm
22/5
3,6
mAh
ĐHQG
Charles
Amsterdam
Table
29/8
Khẩu
tằm
sảo
roi
Hạm
day
VNCB
2-4
Ty
Beckham
31/5
GCNQSDĐ
21%
Sợ
330
19/5
25/9
10/3
have
Lux
##47
Live
Rai
ỉ
25/4
16/8
##re
Las
##/12/2016
20/2
start
55%
Anthony
1964
nạc
Wang
trỗi
tủi
##trên
xíu
##gmail
chát
Poroshenko
kiếp
Bundesliga
##/7/2018
Cameron
##ntium
##óng
##/07/2018
##67
##Thương
Jun
Lebanon
XVI
##parent
miê
Photo
31/10
Hinh
##Table
rạ
tơi
múi
vãi
27/4
Harvard
Stephen
Bế
Phê
Definition
Volkswagen
##lband
Đéc
UBMTTQ
go
dô
tấc
Cấn
húc
##iều
##)
dấn
##que
##/2012
##-30
hằn
XSKT
bái
##MsoNormal
12/7
CMCN
Marketing
6/8
Coca
MS
nhúng
two
Innova
##padding
##priority
##ce
No
##orphan
Triê
Bashar
Lim
Thuật
widow
Ibrahimovic
##pagin
nguyền
hormone
5/8
ĐKVĐ
9/8
Disney
Holdings
##noshow
Sứ
2/8
teo
1950
##.2018
year
PNJ
20/6
Istanbul
Hawaii
28/9
EN
20/5
##owband
2015-2016
VĐQG
3/8
Time
khinh
##chi
Geun
1/2019
Your
##/5/2016
rát
phèn
nôi
tróc
đực
Lược
9/10
10/7
KĐT
nắn
homestay
Eo
##te
19/9
127
##Assad
3/7
##/5/2017
hất
Tôm
##US
132
##/2008
Journal
3/5
##sa
1-5
##đến
Ngọn
Complex
Tillerson
cooperation
mẹo
NAM
CCN
##những
3,4
Chim
hòm
Đâ
##ong
vung
MacBook
Mattis
Southampton
lút
16/7
Tảo
165
Jung
9/9
##also
Luỹ
Khashoggi
thuyên
KDC
kV
phình
Island
6/7
Hassan
Kh
CBCS
bầy
Newcastle
sảng
5/7
##đang
##PTNT
Nợ
##/12/2018
Áng
HĐBA
Buriram
Kem
Tải
rôn
9/5
France
rườ
##/06/2019
Ole
1966
cặn
Sterling
nhích
Miễn
##rùng
sói
Trầm
4/6
Bolton
Jackson
ngẫm
tuýp
Dả
Cắt
##tô
##ằng
Rouhani
Triết
Benzema
Thy
Lenovo
##Dĩ
31/3
sạ
28/7
Trảng
Boris
6/9
##/10/2016
4/10
tỳ
22/8
Tiêm
Hiên
23/8
GI
14/6
##iếp
##ie
Frank
dí
22/7
##no
24/9
Guinea
Luxury
KTNN
Mohammed
0-2
Vin
17/9
DK
4/4
livestream
dolore
2/5
Smith
Telecom
Vios
vảy
Đư
##án
15/10
8/7
Khát
##Qaeda
14/9
TTTM
Petersburg
28/2
##Internet
6/6
Hố
bịa
27/9
Marina
0,5%
Shophouse
Xoài
10/8
##/2011
Trùng
1/1/2018
Mall
11/7
TNXP
ngợp
##/6/2016
PTĐT
MiG
TM
##/8/2017
##La
Modric
172
QU
Shop
14/5
hốc
13/8
15/4
145
rậm
nhoà
he
Truyện
##từ
giâ
27/8
nấc
lẩu
TTCK
##trick
3/10
ngút
IPU
hắt
##CH
cừu
##/4/2019
##ga
7/10
Azerbaijan
10-15
Muangthong
Auto
Kang
GRDP
ôxy
đong
PCA
que
ĐV
River
Kenya
VIC
14/8
21/4
Medvedev
Luông
25/11
General
mè
nách
Suy
##ho
25/8
19%
121
chổi
23%
##ko
Love
##st
11.0
##iam
tít
bẹp
TNCN
Đâu
KCNA
##nam
Tiê
hoă
18/5
Đán
mướt
18/8
##Explorer
Ko
5/5
Chà
134
Khiết
Trào
981
HI
development
##đầu
##0%
xỉn
1962
4,3
hecta
yen
Hanh
Visa
chôm
HNMO
Camry
Wimbledon
Mon
##hắp
Thung
Đổng
3/9
Mozambique
chao
1/1
Đột
Rác
nhơ
You
PR
##-24
Voi
2/4
nga
not
Ngă
##52
Sê
##Nga
##/04/2019
CMC
29/3
rợn
Shin
##03
gene
XHCN
Đước
2/7
Lát
##CLE
51%
tuông
Jobs
lợ
##lin
Tào
90.000
Tesla
XV
von
ĐTO
kèn
hích
Khan
EPC
ICTnews
##ầy
CPH
giấm
Steven
22/6
ARTI
lạng
12/12
gôn
119
muống
12/8
nhoáng
tễ
Bày
16.000
Tráng
Ngàn
Pay
##90
Catalonia
phượt
29/6
##ke
Mario
##+
hãnh
dãi
29/7
VCB
49%
##năm
nano
Oceanbank
8,5
##ảm
penalty
kiểng
phen
Victor
Joong
TTATGT
Đă
nhác
14/3
Giẽ
Ngắm
Hu
yê
thán
CD
6,7%
Jeff
##ine
##w
Vinasun
kềnh
Taxi
Del
##KT
##ion
24/5
10/5
BlackBerry
12/9
##-21
HTV
20/4
Thiều
##DO
gỉ
Nhâm
3-6
VR
21/8
LĐTB
23/6
bo
bitcoin
thừng
##-52
nham
10/2018
Loài
22/9
Bể
XX
Lành
8/10
##min
18/9
12/4
nỉ
vươ
rồ
Christian
4/9
22/3
##/9/2019
GPS
30/7
VSIP
GMS
##/3/2016
Tàng
##/5/2018
Tuý
hởi
15/6
##-17
2/6
Benjamin
Pitt
American
Làn
nhung
124
##ể
Bò
BC
##/11/2015
rê
Zimbabwe
Vé
15/12
##ậu
Bồn
26/8
Thuyết
##Hàn
nhẹn
ThS
Dưa
rock
6-1
31/12
10/4
4/8
giầy
2010-2015
Charlie
1963
Oppo
Inc
##/10/2015
CAQ
sài
VNM
7/5
Ferrari
Bar
Lỗ
##ar
was
6/10
18/6
640
Enrique
Re
mún
Shark
##/3/2018
Khuôn
Gọi
Diamond
vía
Trừ
13/9
##46
##NN
sộ
8/5
##Theo
hat
Jo
Dr
Chốt
29/9
nhờn
súp
7/9
Ivan
kiệu
dẳng
12/2018
13/6
##Z
ắp
10/6
nghêu
17/5
##èo
11/4
Phnom
Maritime
24/3
30/10
Chen
Tâ
Men
16/5
Thiệt
23/5
ATVSLĐ
Porsche
Khoai
Roberto
##as
21/5
10/9
##/06/2018
Ná
gọt
Messenger
Thuần
sỉ
30-4
cốp
DOJI
catwalk
Vinashin
Rock
##huỗi
Francisco
Mueller
9-10
5/10
xoang
LĐTBXH
##ti
25/5
24/4
Gái
26/4
Chuối
30/5
Chứ
nhện
##4%
khuy
vần
Jesus
8/11
21/9
Shaw
buồm
##tis
ói
DIFF
##gov
Cò
##j
piano
Serena
##Bộ
Emirates
break
Universe
Tóm
Trâ
##lo
Cambridge
9/7
##hách
122
TTĐT
JCPOA
Ôn
content
365
24/8
Bolero
225
Đẹp
cu
##hye
6-2
TCty
Pokemon
series
##,9
ekip
Nổ
nhấ
Phone
play
##/12/2014
3/2018
Đu
Michel
Data
21/3
##TW
27/3
test
won
Hôn
mướn
##ki
Chicago
Maguire
AN
Yingluck
Dream
megapixel
Rafael
24%
3/6
Thó
##/9/2017
1.000.000
Mạo
17.000
Ukraina
1959
##mg
nhú
Manuel
Thỉnh
càphê
##70
27/2
12/5
##ad
oi
vệt
136
23/3
bần
Gabriel
##/2/2019
CLO
Penh
ngẩn
PA
Pen
chảnh
city
Fan
Hạc
Andrew
Fortuner
nẻo
Nishino
##/3/2019
Mễ
Corp
nhuệ
Tony
139
##BD
15-20
hấn
##J
Car
bùi
bịch
Chanh
Oman
18/3
Patrick
Non
Yu
White
sunt
héc
##bị
1/500
nao
khoắn
##chia
Sán
ố
dolorem
phất
ipsa
Arena
14/4
Đèn
Il
ĐCSVN
Full
Rút
AT
oC
Kelly
Sốt
Lạnh
Lyon
percent
nhọ
Sớm
giở
Office
##khi
3,7
8/6
Hé
Tae
Olympia
Kate
Ranger
Fashion
PCTT
Jackpot
khoét
cồ
Lin
Tunisia
Elizabeth
1/11
Don
huỳnh
data
Chrome
Musk
oanh
187
Noi
XIX
##way
Bơ
14/7
IT
##at
Đính
21/7
Adam
##/05/2018
hanh
khay
Gỗ
President
găm
click
17/6
30/11
45.000
##.2019
càn
##49
168
Rica
Roger
VSATTP
Tắc
dìu
ri
Ju
1/12
3,3
##/4/2017
vựa
##ten
thớt
##04
Chì
Hắn
BRG
sả
26/5
Brown
Dây
1958
Skripal
RCEP
Thận
6/2018
trọc
##BYT
##ban
xoè
Túc
4,2
Hamas
Ngu
27%
ĐTVN
Sẵn
Đạ
##za
NHTM
Bphone
Canon
Nhiê
Ltd
##/8/2019
KP
hun
nhàm
Rolls
vạt
850
Valentine
made
##ỡ
Touch
3/2019
Kids
##unt
Tayyip
HSBC
HSSV
13/5
##-6
##é
Bruno
Lumia
15/11
mẩu
THANH
7/6
Carter
Pixel
Nối
thỏm
Hollande
chội
30/3
11/12
nhạ
chây
3.5
380
##ùa
PCT
1,5%
Ru
6/4
nhớt
CHXHCN
9/2018
133
Phuc
Tê
Town
University
duệ
13/3
Biden
131
chù
VGP
6/3
Dijk
Che
Huê
Lucas
Chơi
144
Residence
24/10
truất
##,5
Rose
18/4
between
Baltic
Armenia
##/12/2015
Thiền
28/3
##/4/2016
##ner
bolero
rông
28%
6/2019
31%
157
##vào
gắp
19/4
ATP
26%
countries
Nê
chat
Mừ
10/12
ABC
block
22.000
AAG
ngủi
tanh
Tủ
##TM
16/3
teen
Prudential
29/5
19/6
##TC
2017-2020
##/11/2013
##/9/2016
SSI
chầu
##Bến
Startup
IP
2024
Bolivia
Perez
Premium
##me
26/10
##15%
720
Bieber
##vi
chước
137
Thua
Am
Donetsk
28/4
19/2
##lanh
tuồng
Express
bủ
Brent
Vegas
Trứng
trade
Marc
vừng
Somalia
mậu
sọc
Cân
##or
nhỉnh
152
14/2
Nhan
##,6
Jang
25/3
Rover
vặn
its
Infographic
##Banner
167
Đoòng
Trudeau
Sir
3,8
20/1
đờn
11/3
lép
##5%
Nêu
sữ
bậy
Dễ
4/2019
23/10
LHTN
quậy
vênh
hàu
2-9
##ề
##Âu
256
Nóng
29/11
SC
Yoga
nhũ
13/10
27/5
dỏm
Nhãn
11/6
##Hải
14/11
##san
Dan
17/4
vali
Bạ
their
Simon
vế
AK
10/11
2.200
Food
Gang
tợn
1961
cẳ
Guterres
Korea
350.000
Huyên
ILO
12/3
blog
trầu
cằn
We
3.0
Francois
Dell
ủy
SAR
147
Biện
Nh
THI
Mata
##26
pop
Estonia
Né
##Quảng
##/7/2016
Đồi
16/6
##hăm
Secret
chừ
lỏi
##ers
142
Miên
SL
tột
1-4
##ại
19/3
CGV
Henry
CBCNV
3/2
##,4
##DL
AVG
6/12
32%
##/1
HH
vãng
North
ATTT
Party
Andy
33%
##os
##ring
11/8
22/12
café
Múa
22/4
xuô
Lion
It
##EU
Nikkei
Câ
340
kén
11/11
Khoái
Loạ
CNBC
Luâ
Cairo
View
Sổ
QNg
Miện
phươ
mào
5,7
##con
BP
29/4
ngát
15/1
Villas
##TV
16/4
##si
Hee
url
HC
Ti
##NHNN
##se
Gio
##/6/2018
##ty
Futsal
Five
Pence
Dọc
phiện
2/11
Dybala
mó
##ển
##Tuy
Philippe
Cáp
ATVSTP
Lazada
Thuyên
##Khủng
23/4
căm
420
Đáy
Kiểu
##NQ
Peskov
Petrotimes
28/5
12/10
Lỗi
6/5
Zhang
NAFTA
rìa
24/11
gượng
gameshow
Phiến
##đi
DC
xù
##ệ
##-9
4/2018
CTV
##ưởng
blockchain
HoREA
Busan
Sát
9/6
##sen
##et
##hấp
9/4
miến
lõm
Salman
chan
Wan
cứa
Fast
ANH
29/10
9,5
##ja
##/2006
17/10
SXKD
Chiềng
##ey
Vientiane
##ai
2035
##thương
##ấm
##88
##/6/2017
480
8/9
All
+3
##54
khè
THAAD
Dừa
##,7
1/2018
1900
dẫm
##éo
5/4
8/2018
SBD
Core
còng
##,
6,7
##BCT
##/8/2016
lốt
ngót
##tan
Lửa
2014-2015
Kích
7/3
##ley
guitar
ốt
Trai
162
Nhanh
mp
showroom
VCS
26/2
7/11
Tháo
cáu
cửu
Cấu
IBM
11/10
Guaido
sủa
Vải
##cc
Leste
MSN
6-8
##lan
Tao
SOM
xuyến
lẫm
lìa
6/11
##-14
Shangri
Hot
Silicon
16/10
27/10
##-2009
##ớt
Leonardo
thúng
##/11/2014
9/1
Nhịp
22/10
##so
sụn
CBRE
##xi
##kinh
tắn
AIPA
rúng
0,3%
hời
Sào
Santa
GHz
Mali
##ến
Omar
LCD
##/3/2017
Chả
Vươn
Hòa
198
Vesak
##ina
Then
trailer
##59
Telegraph
Halong
Dũ
UV
NĐT
vo
Everest
Mane
13/7
Frankfurt
CSHS
nude
Xperia
11/2018
Mary
MINH
##/12/2013
gởi
Thuấn
2.400
quí
Virginia
Mar
Joseph
mố
##ji
Pôn
3/3
##Hoa
17/3
buốt
Trống
McCain
Hầm
Art
Najib
gút
##mi
kh
##ity
Taylor
158
8/1
21/12
đày
##/7/2019
xén
Lamborghini
##/2005
more
est
dụm
Phil
0,2
Lắc
Kar
3/11
QSDĐ
khoahocdoisong
Chỉnh
##-57
ISS
3000
IELTS
4/11
KI
##ur
Queen
##làm
ren
sảy
hòa
Sergey
28/11
##-18
7/4
Eurozone
##0,9%
11/5
Roland
194
##su
tennis
HV
##tam
nguôi
36%
0-3
##tel
Nă
Bỉnh
OECD
##ev
2.300
luống
sùng
VO
23/11
##1,1%
Thà
Phán
##80
245
Thảm
5/3
##phát
130.000
hú
Jan
Jim
Quà
##/2004
##ẩn
han
##/7/2017
nháy
Thê
38%
TTV
##ột
Paulo
Macau
khơ
Pierre
Khói
logic
1-7
luyến
For
19/12
aut
Abdul
##LienVietPostBank
mách
Lady
16/11
15/2
##100
Ngang
trầ
PN
13/11
Bezos
Ed
4-2
##2,1%
Coi
Sint
Carolina
SA
bêtông
0,2%
2,9
##48
knock
3,1
##hần
dế
28/12
niê
42%
25/10
13/4
Ancelotti
Widodo
Tanzania
##thành
team
biếm
5,2
##quang
XVIII
AEC
189
tuồn
25/2
Richter
Heerenveen
Friday
Vạc
Lấp
Liu
8-10
##ậm
api
bích
22/2
16/1
Bluetooth
cốm
Tra
Raul
Elo
Baghdad
26/11
##thi
lùn
##đối
##pu
VTVcab
24-27
Web
Tech
25/12
Cienco
suyễn
re
ngửi
Aubameyang
##CT
quẹt
Trứ
5/2018
4,8
9/11
Gomez
nylon
12/2017
6,5%
xy
Paraguay
People
##tech
10/1
21/2
Xoá
Bun
5/12
cưỡi
##/1/2017
7/1
##38
gạ
Chiên
Bhutan
4,7
Nhựa
Haiti
PTTH
153
Pi
hờ
Latin
UNICEF
Boston
##tra
##02
Đổ
insulin
##;
Maldives
Insider
Finance
148
Pin
Bọn
Ngươ
Rex
CTCK
##ời
##iện
##âm
quệ
sải
app
Tha
Francis
4/3
171
##bank
##,8
Carina
Organic
SDF
Măng
##ã
ỷ
Kyrgyzstan
NTD
nhếc
Triệt
##300
Ngoan
##illo
xịn
biếng
Sim
143
cữu
12/11
##ích
nái
Dục
ắc
mu
Trục
rọ
11/2017
Bruyne
Nghỉ
PVF
Kiện
Củng
dolor
##pa
Kéo
VKSNDTC
doping
##gi
Vò
##CV
investment
IN
##Royce
sed
hễ
enim
Masters
lênh
##ây
18/10
hũ
new
180.000
Porto
tép
Soi
aliqua
Summit
status
xới
HPG
1-6
Mu
ụ
290
Safari
Alves
10-11
4/1
5/1
veli
Marvel
61%
phui
##ô
Cheng
Trích
ĐTDĐ
Nén
##'
27/11
##ội
18/2
Melbourne
Source
##hằng
VHNT
people
2/2019
CBCC
1956
##-10
Him
##32
##han
##-50
Sanders
Kroos
10-12
Tiger
Marcelo
Nấm
Album
##/5/2014
##kira
sùi
Brand
QG
##dantri
##iệm
Pedro
Anfield
94%
##du
tab
opmart
RS
Design
##edu
visit
GE
6/1
bon
hổi
##/1/2019
mửa
Gas
gớm
Emerald
2.2
câm
156
93%
Giếng
Vơ
rầy
Say
margin
does
##/2018
21/11
Basel
2,5%
SK
Thả
##44
Hapro
mazut
thét
18/1
34%
7-6
Marriott
GCN
##one
1/2017
VNR
##xe
you
ruốc
gỏi
xóc
1/1/2019
Carl
că
Dụng
Pasteur
STEM
tót
##321
Sarah
bỡ
Alpha
dẻ
country
QCVN
Ligt
his
Senegal
##format
201
Lewandowski
23/2
7/12
tablet
Papua
Firmino
Ya
##.2016
2045
Viêng
Samson
Simeone
Mahathir
Diêm
micro
0,1%
it
hươu
khẽ
Savills
TASS
nà
Type
Valverde
hẫng
Sing
IPv
5/2019
bưng
MI
14/1
5.500
10/2017
6,2
##ru
Lắ
hẻo
vút
Chẩ
##ney
1.8
19/11
nặn
đùn
JW
188
##như
cừ
this
nom
##phải
ABS
22/11
43%
Ram
Dani
Tạng
20-30
hack
xố
kền
Kaspersky
Quới
dát
##bán
##hai
##cha
Peugeot
điếc
##iệc
2.600
Anna
Hugo
Khâm
17/11
gờm
FAX
Nhai
Maroc
omega
Watford
Nương
var
##which
TKCN
##,2
PTO
Mộng
1.6
browser
##Tháp
BAN
Santos
Davis
Michelle
náu
lố
##-2008
20/12
Herrera
VASEP
rầu
7/2018
bở
##chỉ
TPCN
Sôi
174
Hormuz
Warren
4-3
Loa
organic
Ligue
mướp
Già
##thu
lim
Xuyến
nhưỡng
Sochi
##Liên
Ne
tía
Uni
Number
##thực
185
##68
##tông
##ard
derby
Beauty
radio
Credit
##/1/2018
Dành
151
SM
India
14/12
ab
Vẽ
Antoine
8/4
bói
7/2019
2020-2021
Luang
##/2020
1946
##ợc
5,6
##83
huân
HĐ
CNCH
Fair
Dừng
Mao
SHTT
héo
0,4%
Vienna
Bút
37%
5/11
##Các
19/10
##ướng
5000
POS
loan
000
Congo
4/12
##này
##ợ
Samdech
##bo
Emery
nháo
VNG
Bột
Venice
Lotus
Electronics
Fernando
154
40-50
23/1
Fe
##ak
Vững
Aston
Wayne
##au
1955
SCMP
đờm
Ferguson
Fadil
gao
950
Chè
##ình
Jason
tuất
Angel
trợn
Novak
##sh
Kashmir
##ling
9/3
Thươ
ngò
92%
Lake
176
LNG
4/2017
28/10
Ngộ
Marcus
province
vò
Habeco
18/11
1930
##.000.000
Luke
Wu
pa
Narendra
Ex
bai
Colorado
Rời
Của
Dembele
Honduras
Wei
2/12
Tồn
##ãi
149
Dưỡng
##,1
##ẵng
Nùng
KBNN
217
570
##ị
đản
AR
6/2017
161
Bung
yếm
lă
Standard
gù
Grace
Heung
Miguel
million
amin
Nguyện
Gan
XL
Ted
Đò
Garros
Rủ
Morgan
##ễm
bít
9/2
SME
HĐLĐ
Chấ
Mỗ
Morocco
Khâu
Nhổn
##ham
As
Landmark
Riyadh
##đ
Chết
Lèng
7-10
Hỷ
Interpol
del
Halloween
Phìn
bềnh
pro
12/1
48%
Asus
6/2
Trộ
beta
Marie
Mc
##be
MTTQVN
Edge
Iniesta
##/2014
IDC
GDTX
Bó
Hãn
Hezbollah
Cavani
Gmail
dượng
18/12
11/1
Chiê
Java
##Campuchia
bu
Earth
6,8
17/1
##ấn
Network
##/2016
khanh
British
Talent
bùa
Lôi
##ius
bươ
3-3
Dài
Lab
Salvador
14/10
##aque
Hua
##ỗi
##BGDĐT
si
##Tây
THU
hớ
Mirror
tag
4,6
Rơi
23.000
197
279
phốt
Bob
Vung
Caracas
##line
RO
Xà
Blockchain
Bournemouth
##08
Jay
Brian
Win
photo
8/12
Digital
nhóc
7,5%
trẻo
Vision
TMV
hãn
7,2
##Cola
Eurowindow
inox
##Tổng
5,8
Phe
##500
TG
Giroud
OS
Aeon
concept
Got
196
##/2/2017
img
202
Financial
Doha
TCT
Ghềnh
ỳ
0,1
Doan
Thang
19/1
Kabul
East
##/2015
##KHHGĐ
1957
##-27
7-5
First
Pan
Mini
Port
chồn
##33
Mkhitaryan
##đào
159
Sin
##ron
##po
tuộc
TGVN
rư
um
Ken
Nhuệ
178
Mate
##36
##ặc
Smartphone
CS
Yoo
ngớt
Bridge
Chanathip
VIETNAM
##rập
Rô
Grammy
Abdel
Thợ
Eden
##07
27/12
Rakitic
ZTE
Haram
1.2
khấn
EUR
16/12
TTC
3/1
NT
##InterContinental
Chùm
181
tiếu
Bếp
##quốc
3,5%
##gan
##ara
Dow
Dụ
Carnaval
Torres
nhõm
Science
9/12
Mil
ECB
xui
##ze
9/2017
Lingard
Sed
##/10/2013
5-0
Lẽ
1.900
đay
Ja
APPF
Buffett
ĐI
##ếch
Châm
3.200
nhấc
Ao
23/12
110.000
tuâ
MXH
State
47%
Etihad
Vỏ
vest
Health
3/2017
đáu
mobile
##đó
Cameroon
flash
##field
29%
16/2
ĐTM
Selena
FDA
21/1
CTĐ
Curacao
Higuain
hotline
voucher
DM
52%
Woo
mui
5/2017
163
Joko
177
##ồi
Shi
Hae
Rằm
ARV
Bu
Tran
Nào
13/2
Ozil
Project
home
430
01:2
mả
Cuông
đoá
53%
##HS
##/9/2015
ó
richter
mọng
##orta
Villarreal
Renault
Vidal
##hi
##tae
download
Fu
Kardashian
cp
##mo
NBC
key
##hen
suâ
Gary
212
ghềnh
LTE
##điều
25/1
##ve
186
Civic
Columbia
ngáy
46%
Sanna
Án
##65
##ez
2/2
over
##,3
sứa
##CĐ
lăm
IAEA
Kiệm
Lậ
41%
EPS
Tiếc
Lopez
##/2
##75
ngoãn
##hưởng
##moon
tề
Mátxcơva
166
NNPTNT
Minsk
5-1
Ron
xở
Miami
##gia
BST
thò
mút
dặt
first
Thuê
13/1
160.000
phộng
310
Nations
Xuan
School
Dĩnh
Nại
##Phú
7/2
lác
24/12
17/12
cằm
Giỏi
Raqqa
##ơng
##HLB
Mẹo
##ju
đú
Morrison
DAP
25-28
Motors
Imperia
ĐHQGHN
205
Maps
Viktor
lả
24.000
Sisoulith
Davos
hửng
Tripoli
##ịch
##/6/2014
##ee
Aung
Bio
vẹo
12/2
##/9/2014
4/2016
Hơ
##ảnh
bư
NKT
##nhà
26/12
Water
Mnuchin
Technology
Ôtô
giẫ
2-5
TTVN
##/7/2015
Nhượng
jeans
Zelensky
##BXD
##nhiều
Latvia
Total
Vinatex
rèm
##Anh
Denis
460
##27
SX
##Class
##9803
##NER
6,3
Week
ló
Jonathan
EP
Doji
OTT
##/1/2016
Muôn
dơ
phào
##hiện
23-26
DNA
Giồng
Maya
toái
English
diêm
dền
2/1
luồn
Nestlé
tịnh
nứa
##ộ
Ray
Mại
CES
At
10,5
Cười
CSB
##09
Sharapova
Western
billion
##29
Edward
Giành
one
ngố
Alan
Morata
Húc
Ahmed
TRUNG
SP
chóc
12,5
5/2
Aaron
##á
Buffon
12/2016
##ian
TCVN
164
kha
27/1
nghĩnh
gư
hiu
##ăng
Aviv
##em
6,1
##Photo
179
GP
##kin
bời
Chơn
173
lồi
natri
niu
Cưng
2.700
Jerem
Will
##/11
##Thủ
international
ĐKXT
Gruzia
Thonglo
Pop
KV
##ơ
Viglacera
Nhỏ
Jorge
Pochettino
VAMA
Lênin
Boko
Guatemala
Kyodo
vén
DAB
TMS
##atus
##chính
Happy
Flores
##350
thoi
Kiêu
Joon
##-11
Fellaini
uyển
Se
11-12
code
Đủ
##28
BID
tã
29/12
Luka
8/2017
##UB
Philip
ND
Nghé
Garcia
CÔNG
golfer
##ter
Shah
##ang
31/1
Software
##-25
##bin
BH
##Trần
Oezil
Great
13/12
Glass
##râm
vằn
Panasonic
Sharp
War
Nano
Giác
##org
##TN
lằn
Ghouta
Houston
Potter
Lăk
MWG
6/2016
##4,2%
2/2017
Khaisilk
Bối
5,3
##Capita
Kị
##sky
##bleInPreviewMode
Habana
Alzheimer
oai
boong
##den
Mâ
##ge
Tụ
0,8
6,4
Vnexpress
Iphone
thày
30/12
Security
Rê
Night
Shoigu
ADMM
Hongkong
Martinez
Lúa
loà
Quí
##TTLT
liu
Ong
7,8
Chiang
##BGTVT
##An
5,4
Championship
302
Entertainment
44%
183
Athens
Chèo
Sướng
169
Sập
TTg
Burnley
2.4
Isco
Huỷ
KTTV
nín
##ul
##am
##thì
tiệ
##AN
6,6
218
##CC
##van
ICBM
Saigontourist
UPCoM
methanol
Mến
body
##-26
2016-2018
10/2
trớ
Ross
RMIT
Douglas
##06
BIM
3/12
dơi
Hoang
Ôi
rem
CIEM
Chụp
Jút
##nk
Georgia
SAB
199
pixel
tì
##8,6%
195
Đuống
Rob
58%
##/10/2014
##việc
215
Manhattan
Patriot
Micro
High
KHHGĐ
##/3/2015
CK
hybrid
Jon
##51
Invest
Erik
Tui
Angola
ngùng
1953
tráo
lè
Fanpage
Siri
thót
Buồn
##7,5%
3.600
Cp
Corporation
EVNNPC
collagen
##ê
RIA
##/6/2015
2.800
HUD
choàng
Hồn
Ad
Slovenia
important
yểm
cent
##yan
Vay
labor
Hoè
##áy
26/1
nhừ
Blues
Mohamad
style
+1
Thước
Hwang
or
Bentley
Abbas
##/8/2015
UNDP
HAG
hèn
##HĐND
Cạn
En
nhầy
Nhiễm
Ro
##ran
21/10
Vinschool
Igor
rocket
sứt
time
21.000
đấ
17/2
##ate
##ẳng
height
all
Space
81%
Miley
140.000
HR
##tiếp
loang
##theo
Walker
Kennedy
8/2
ngốc
193
##8%
Stone
##đồng
Swansea
Guam
Wave
##ổi
11/2
táp
Snowden
Limited
nhỡ
giêng
22/1
Trá
##72
COP
Nang
soái
##lăng
khít
##quy
##uổi
thau
nghén
architect
##đa
Wilson
Vsmart
nheo
##ùm
omni
hờn
##200
Gazprom
Ashley
##hu
lóng
Recep
520
1947
Nham
chẻ
##-29
57%
##-500
ASOSAI
192
##detail
Trú
Mugabe
24/1
3,9
lạch
trắm
nhó
Avengers
Vâng
bèn
Baby
cover
##house
Andre
6.5
##ẫn
axít
Andrea
Ngưu
##ier
hon
pH
Tuâ
suông
ngùn
Wolves
##ker
Free
777
incid
Coco
390
MK
##-90
VJ
unde
Bounnhang
4,1
Blade
QS
Dã
Tỏi
FAT
##der
Run
Market
tét
##wa
325
Christopher
##ber
MBH
Rùa
4,5%
##Lê
8/2019
7.500
540
##/2017
DV
Cua
##53
gán
##io
Neuer
55.000
tourism
Nova
nhảm
Pol
Committee
error
Jet
0,7
TNLĐ
##iểm
gr
NCC
0,6%
Yết
PyeongChang
AQI
Vinacomin
bả
inventor
Alaska
Prix
Sol
75.000
ngụt
Fintech
xiêm
PVEP
VQG
Team
2.100
Koh
Research
FAO
Lồng
Miu
ĩ
##id
1800
##iatis
Lựu
Fred
tầ
sệt
##ctl
Pearl
vớ
tròng
440
Kop
4,4
Toronto
Senkaku
Bilbao
aper
Bella
Lắp
iste
9/2016
222
chít
Nhậm
15,5
Jeju
dicta
Ramsey
16,5
IC
khoé
Po
247
275
consequ
quasi
##explicab
accusa
verita
lauda
Vivo
magna
chang
Trác
39%
2018-2020
##-2020
labore
thong
Johnny
persp
nực
Trăm
##.2015
Gunnar
##-1975
##-7
Cruise
##/2003
Celta
TTĐB
Economic
Soo
hydro
st
0,4
54%
Deputy
Moody
tùm
IQ
HT
Melania
Điểu
6.500
chùn
ADS
PetroTimes
XVII
Sarri
sấm
##đề
30/1
900.000
##Bank
share
Túi
Vinfast
ngưởng
chấu
Dơi
##uyên
Bon
##320
Khoang
##ay
##ver
##hênh
VietNamNet
##ek
LPG
room
bành
Jurgen
Vespa
##ok
Surface
##tham
Đươ
Nike
1500
Lisbon
Giày
tuyền
high
chàm
market
Jr
Liban
xiêu
##atae
BB
điểu
rít
##/4/2014
thụt
Lạn
Chanel
Samuel
7/2017
chuốt
HDV
Karl
Stockholm
##Sau
##ãng
##rin
Yokohama
##ger
Mươ
out
##,0%
ngâ
##/10
rịch
Thiệp
nấp
56%
Grande
Toni
28/1
Siu
BHL
##baian
Ultra
q
Mát
##9,6%
Retail
CBCCVC
ẵm
Eriksen
oải
đênh
TNDN
ngớ
Vãn
##31
##/12/2012
PP
CHK
ù
##ới
Lợn
XKLĐ
2/2018
0,3
solo
200%
nám
##còn
Ter
urani
Keangnam
chocolate
KHÔNG
Phở
Vinachem
Hama
##ski
##QG
Shan
##39
19.000
Matthew
Quinvaxem
Chặng
HNM
5+1
Ku
Tịch
Sắt
184
nẻ
Vietsovpetro
Foundation
xoăn
##Thanh
##been
##ts
72%
Logistics
Nhé
10/2016
4/2
ngạo
KS
vồng
##,75%
Ohio
Allegri
Comey
Súp
31/12/2018
Report
##jo
26.000
##63
Ronald
##ục
2011-2020
taluy
##well
##USD
Roman
Dai
xệ
Gá
Nature
Lính
mọt
##89
##1,8%
024
Gamuda
sớ
sẫm
1080
##ự
##58
Abbott
position
Kì
world
##nhưng
##Viet
Pepe
event
Ana
Gen
Low
Dị
Key
Book
239
nhún
Netflix
Juncker
TL
DVD
30-40
Tắm
Cành
##Đại
Donbass
3/2016
##/4/2015
Lung
Jenner
Powell
Ngoạ
Má
Alba
##DS
##Chủ
##Thuỷ
IUU
BVSC
đuốc
Rico
Fax
True
100,000
TOP
KHKT
7-9
##ử
quae
hực
Phươ
Asean
Bền
lịm
Ngòi
CDU
chòm
##uống
67%
media
card
##3,3%
ươ
##VP
mị
Duma
##sk
giậ
festival
##ASEAN
##ậy
11,5
9/2015
Bật
##).
economic
Luxembourg
Ghana
Nôm
lấ
phả
Vinaca
Carlo
Apollo
##37
##1,4%
diết
Hart
Harvey
60-75
1,0
62%
5,1
CSXH
Para
NSA
khế
Mottainai
host
204
Navas
Coffee
1.4
HSG
mĩ
rả
gài
ngóc
##HUY
Heineken
Oxford
ngầu
nòi
450.000
Hitler
Zinedi
Pique
WhatsApp
Dâ
##able
229
5,5%
vít
6,8%
Adrian
##8,2%
bặ
rục
Tươi
Golan
##ẹ
##hóm
29/1
##asco
BR
mãng
7/2016
Vê
chày
Ahmad
##91
ắng
rè
Kèm
Nino
loá
##66
7366.49
uranium
my
315
Shinawatra
Ngõ
Ngủ
Up
Santiago
marathon
##Ninh
Aires
Nu
##era
##/2/2018
##áo
##99
##arry
Bún
Xưa
Yangon
PBGDPL
Vigo
##IA
thảy
1,2%
##hoạt
Ruby
Ngầm
Điềm
2013-2014
mích
Grai
OTP
Award
##bi
Michigan
Start
biếc
28.000
203
216
ICC
##tic
##ol
OPPO
224
560
##ting
##iemsat
Deir
cạp
64%
4-7
bim
Brom
Arizona
##TIVE
ETF
31/12/2017
Condotel
sẩy
1/1/2017
265
rapper
Is
Albert
##-31
hỉnh
1/2016
2026
years
ties
##sự
Muối
##đưa
##thông
VFC
12/2015
ráng
##8,9%
##43
Buenos
PVcomBank
Tản
Future
KHXH
CNHT
VLXD
##ir
Guinness
Puerto
Trỗi
chạn
##41
##84
##xa
Arsene
##đường
##ỹ
Hoe
nhẩ
foreign
Code
Sạ
Sebastian
Vatican
Diaz
##Hội
##42
Scarborough
lượm
##PAGE
Gốm
##cùng
HVN
27.000
HSX
chãi
11/2016
Bỗ
nhọt
Xả
Foreign
Yeah
Smalling
Tung
##ik
Massachusetts
Tomahawk
Weibo
2-6
mạt
nhá
##71
Matt
Bird
meeting
##lô
30-6
bốt
Education
Nexus
Sâu
##baht
Lisa
Cor
##ville
Les
ạch
##jin
par
VC
Nghê
held
##ờ
Year
5/2016
liếng
8.1
Allen
hắc
bỉm
Tẩn
Bôi
Lầm
chĩa
Starbucks
##vẫn
##sau
##ria
Tab
thía
Chó
512
Lazio
titan
Marseille
##đằm
rôm
##-34
xuý
29-32
Pennsylvania
vánh
virut
Duyệt
Aqua
##sinh
Lượt
đát
smart
##.2014
200,000
enzyme
USA
##ện
độn
235
nhe
##ster
CHI
Ivanka
Jamie
##0,4%
phùn
530
##ẩm
tòng
5.5
##mới
XR
##69
Motorola
fans
phỉ
uô
##news
##yong
86%
RM
##shi
##/19
4.200
Juergen
Mumbai
cút
##star
##tư
##ý
Junior
Hon
Turnbull
Libra
rặ
xèo
##4,9%
gara
Pot
##ah
##văn
HANOI
Lincoln
Studio
off
Mun
Fukushima
Peninsula
túy
Bond
ten
7,1
##NS
Piaggio
xẩm
Sô
Luiz
tậu
WT
##-20%
0,6
chuô
214
chuồn
Mandzukic
Ecopark
Graham
8-3
##qua
Lima
##4,6%
##áp
CTG
##34
quạ
##,01%
hến
Nộp
Lewis
36.000
##tơ
CAH
Cafe
Gaga
Oh
văcxin
Sunrise
Vincent
rợp
Today
Chảy
32.000
##Quốc
##ler
Dá
Foxconn
Caribe
ngải
##est
Hailey
Đợi
chỏ
##bar
BLĐ
##zi
ĐS
7,3
Hamburg
630
##anh
sanh
1,6%
911
Orlando
Thailand
Delta
liềm
5-9
VietJet
lọi
lổ
Fire
khê
Billboard
##rô
poster
##CL
Khăm
##lam
60-70
BSC
Trùm
1-8
Point
quàng
bết
Ye
66%
Liberia
BBQ
##vo
3.300
Review
Flash
Rố
0,25
182
##hẳng
Ngọt
Electric
219
##ist
Prayut
Macedonia
Residences
2.1
mix
Nưa
##mail
31-34
1949
Thản
dùi
gẫy
Sara
She
##/2002
lẻn
Vừ
Thuâ
##Mía
XD
bổn
##79
AG
Romelu
Lampard
Tusk
2018-2023
Channel
##học
Expo
TNVN
##Không
0,7%
Ngựa
##ẻ
CAD
13,5
khuyê
Emma
Benfica
USAID
DVB
mánh
Arập
Chun
EAS
vắn
2019-2024
##ow
##/5/2015
##/7/2014
##gr
vát
##enko
##res
CĐT
Lockheed
Meghan
Stoke
CAP
##pop
GDĐH
Val
##dự
Susan
lõng
Pink
make
##ao
##nin
blogger
đượm
tấy
cỗi
Per
##-2007
ngo
##Đức
Janeiro
tắp
Abdullah
##Đà
chịt
ROS
Of
##quan
DQTV
AEON
NPK
hót
Press
Gióng
1948
660
Mú
73%
Opera
Cloud
##điện
##Đồng
##rút
Kền
Lọ
OCB
bilateral
##Ba
31/12/2016
WTA
##TA
Nghè
Cruz
10/2015
QN
LGBT
crossover
Đẩu
Mode
##BNV
##ung
Yeon
2.000.000
##hơn
College
CSCĐ
##/8/2014
6-0
##tổ
Â
308
STB
Yo
Yun
includ
226
356
##4,4%
mỉa
##tỉnh
BGK
27-7
##ova
nháp
##Pháp
Treo
rạc
Xs
##ắp
GDPT
Matic
Nelson
Razak
Lãm
xỏ
Sum
##4,3%
##kov
tweet
HoSE
Miễu
ngai
IFC
Tựu
##phê
##Bắc
84%
Goo
HND
Trù
0,8%
##cô
##gáo
Chad
##cơ
##ck
Courtois
Anderson
207
trụi
##ary
##1,3%
ngậy
MERS
Jaguar
Gấu
##ái
Hút
khuỷ
##Land
##MLD
##ặm
##1,5%
háng
Malta
well
BigC
##mar
Pra
65.000
gien
213
246
##MW
Uganda
séc
Independent
ĐNĐT
Nguô
##xê
đươc
Edition
Heo
Assange
XXI
NO
trám
khỏe
color
209
50-60
Milk
Phì
##rộm
business
87%
Congluan
Chỗ
trạc
salad
Singh
170.000
Hamilton
Net
ethanol
Mùng
Mãn
Kiê
82%
##dong
##2,8%
Nốt
thủy
Vừng
dĩa
bét
##Phó
Furious
191
##/2/2016
Union
Tank
22-25
Sierra
other
Siberia
333
Or
##it
NB
##mway
Academy
Pham
ngươi
Tray
trê
##73
Master
CVĐ
Exciter
Luyến
##hớt
Nhí
470
Vladivostok
nhợt
vẹt
Focus
730
##ere
##/5
Pe
304
Dựng
VinEco
XUÂN
Liam
Neo
##ượng
Karaoke
206
Lặc
Marine
##2.000
21-24
Moto
Okinawa
Nhuế
Skull
lẽo
Sean
nện
nai
w
1,3%
Firefox
Schalke
Hunt
rú
ớ
Laden
Bậ
231
rự
##ini
FE
1/1/2016
trỏ
nghiến
##hừng
Nhẫn
Khoẻ
Trailer
3.400
Tiện
1.0
##Mobile
KSV
Julia
Leverkusen
cậ
##moóc
##tăng
Nở
##ane
Hilton
thoắt
DTLCP
1920
##/1/2015
28-31
##by
294
##,02%
tươm
Nicaragua
Brighton
hỉ
264
Pho
Catherine
Roi
silicon
Tè
Giọ
Yoon
IPA
thuyê
Sìn
Company
ATNĐ
ĐHCĐ
Ar
3-7
##wood
giươ
Bảnh
##9,4%
##ền
##6,6%
Mesut
growth
ĐSQ
feet
##oãn
Mép
projects
dó
208
TTTT
Xavi
##hầu
6-9
diva
giời
Toan
Watson
NTTS
##ừng
5-4
ngẩm
DNTN
Lay
##rụt
Isaac
Kylian
35-37
Súng
CBS
Ló
8/2016
##-12
Farm
vỉ
bươn
Mangkhut
Matxcơva
glucose
Alisson
285
trứ
##81
88%
Tiki
##doanh
luyê
410
McDonald
##api
##2,3%
AUD
412
##ạng
Bỏng
Ths
Sane
MBB
Gibraltar
ngă
Dominic
Craig
Stanford
WIPO
Nice
TBNN
Kai
##lê
cỏi
ACMECS
Lacazette
QP
##uồng
##ND
252
##78
##,35%
Yen
Hernandez
Madagascar
##mà
Kerch
319
Bernard
30-33
1.7
vựng
xâu
##số
Marathon
Kyung
##/2000
Lơ
hẹ
tuôn
76%
83%
##ủa
CLMV
banking
Development
CDC
Energy
carbohydrate
CVT
##/11/2012
##kỹ
ST
SPD
##ura
Lụa
ngợm
BI
##age
##ium
led
##/01/2017
BN
##/2001
Ms
Turkmenistan
Siemens
Road
rợ
228
1952
xoan
Challenge
TTCN
Miller
##7,8%
Gồ
##ich
14,5
##96
##ish
##fa
4,9
Khăn
Seattle
giễu
Mauricio
Active
Hussein
TE
##cy
##/7/2013
hộc
hotgirl
Danny
Choá
Hẳn
HU
##CO
Tưng
##thể
##57
Jazz
VNCERT
17,5
Dê
HUY
WikiLeaks
guồng
ARF
4000
##-36
##bu
Perisic
Sophia
Gỡ
Virus
Miêu
20-11
Pì
##600
##56
Wood
##lai
7/2015
##77
Suga
Suk
221
##aianh
Cồ
chạc
##show
Reagan
Good
Range
Mít
Ian
##7,6%
Management
Robben
testosterone
##sin
ko
DO
Roy
Lighthizer
YPG
Titanic
Little
Harris
lipid
##Ông
FAA
Ok
##OS
##erat
Julian
##zo
Taekwondo
casting
PAPI
Matteo
Búp
Đẳng
Im
##ST
press
Gear
Betis
8,3
Sốc
Mohammad
nguyễn
xiên
##nói
##-60
Sinai
29-3
Bitexco
Icardi
##ita
Seung
nệm
TNR
##93
Buki
lùa
##/2019
7,6
3/2015
##/20
Mản
##-2006
Cola
Xay
##vin
##/4
##-1945
255
ná
Rihanna
Albania
##ku
##rat
Kyi
lảng
##ye
QB
15-8
Gành
aa
##uk
##loris
mo
##ana
Sunny
Rạp
studio
##IS
##đánh
##king
##bon
Wong
Tencent
Hiroshima
Lau
Trâu
sê
Cọ
IPC
Anne
KCX
Chai
Liberty
Vancouver
Vovinam
ghẻ
KQXSMN
Chừng
chiu
lem
Tủa
##86
Stegen
787
Perry
Display
NTBD
sấp
Keo
rươi
Khơ
PVI
9/2019
Felix
iCloud
pizza
Doosan
Kitco
DMZ
Gì
##iệu
##Ngày
1,7%
Kyaw
Akihito
eb
70-80
Xinh
##à
mọ
##ũng
BQT
Thố
estrogen
Phoenix
CNY
490
lụi
cup
620
Trend
##82
Diệm
rìu
Khé
Tí
##/12
##Claude
##Với
##xây
9-11
MN
##61
8.0
region
##ou
Kyoto
giếm
##9,9%
##-28
##PT
##LĐTT
##/1975
##-981
Tớ
##BLĐTBXH
nick
This
236
5,3%
bit
##8,8%
68%
5-8
##nên
1-10
Rong
5-2
Bắn
Catalan
Diana
59%
1-9
296
Vietnamobile
hatchback
Miế
##hào
Drive
##ex
Loew
##ứt
LA
xoong
BLTTHS
Dana
Bọ
##,67%
##hàng
##hép
##/2/2015
Straits
chóp
316
relations
Buộc
Yan
lừ
Nemo
##,08%
Tấu
SKSS
KNTC
THACO
30/4/1975
Chử
##dangb
DHA
CNH
##ễn
242
##PL
mề
##TSKH
Lenin
Methadone
6/55
015
299
Nghịch
Australian
71%
sam
##sil
##,85%
##our
##/9/2013
Luc
rá
Ahn
##nes
develop
MIT
riềng
Varane
FHS
Midu
10-20
##ero
Robin
mành
many
Laurent
Ke
ngác
##tek
Norodom
Alexandre
đỉa
dầy
8,5%
227
Eva
##PV
Máu
Xen
##len
##nhận
Mập
nhấm
sofa
##rất
##cao
Gu
Jalil
SpaceX
nớt
Gun
##64
om
##ef
Ghé
tòa
rế
Gợi
quặc
Kpop
Fold
##/10/2012
Wa
258
321
Pelosi
Texhong
Novosti
244
NCB
Leon
gặ
##môn
##TD
Tước
chồi
200-300
Cooper
##ance
đờ
AU
8-12
Amy
Neil
##-72
Asensio
Malcolm
about
Hiếm
Football
phết
20-23
Khơi
##Một
đoái
gờ
Phàn
after
Stamford
VinCity
hoóc
Oil
GMT
10-10
lắ
##gần
##op
Sina
Shopee
Seungri
lẳng
Haley
##ọ
##my
CASA
lự
Ibra
há
10-15%
veo
##UBTVQH
Borussia
Jersey
goá
##VL
local
##nô
##6,3%
##,0
028
4-3-3
Alfred
77%
Muhammad
##khu
Suu
TBN
Mahrez
680
comment
BL
Altis
##orro
1/2015
Thiêu
##giải
##fi
magiê
0-4
##/7
##vừa
Chol
Gianh
ngượng
VIET
##rật
villa
##od
234
Canberra
Sapphire
TCĐLCL
Tajikistan
960
Kè
20-25
TBA
Sar
##/3
composite
Thiago
324
1,4%
2017-2022
1/7/2019
Palmyra
UFO
CJ
chừa
ổng
ion
243
der
TCM
##9,5%
272
Sahara
Four
Jane
##địa
345
ghẹ
boy
bẹ
nớp
Sỏi
##ot
6-12
##5,3%
##hục
logistic
VnEconomy
GDNN
Demi
chẵn
menu
giô
1.9
Tia
##Bissaka
Địch
6,9
Tán
##tiến
Mă
Investment
second
Ghế
thuỳ
##ẹp
##nan
Qui
Adidas
Zen
Angkor
Mận
PLA
Pô
Gốc
Nhạn
##ó
Hotels
6/2015
11/2015
Sheikh
Huang
11-9
Toshiba
IRGC
DUY
SCTV
Fulham
Wawrinka
PET
249
VA
335
##ment
##eo
Sha
##Chi
Ming
##hay
Dực
##,07%
Unilever
Nhôm
Khoan
500,000
##don
Mikhail
580
DiCaprio
VietGap
Phuket
Heng
nhò
Xích
##/1998
##Thấu
khảm
eu
##lon
Fabregas
ĐKDT
78%
Quyê
##Truidense
Iron
hạc
##74
Gừng
Stoltenberg
##atat
AMM
6/45
##mer
##nia
150%
Gil
Robocon
TGPL
Jessica
hợt
Mưu
Đúc
##nhen
Hủa
scan
##oc
6.0
##sley
Tor
Thít
Maradona
7,7
uế
Bailly
248
Out
30/6/2019
1.3
Lài
##ident
minim
siê
Bell
##Bay
##tri
Irma
85.000
Howard
FSB
Greenland
##shima
Vicem
Card
ex
375
0.05
Alonso
rẩy
Cohen
27-4
Fiorentina
VHM
220.000
hoe
xẻo
Silk
##AT
5,9
Florence
Liveshow
Square
Sofia
vót
##uẩn
##RON
##ois
ganh
33.000
Turbo
Trade
CL
292
Oánh
2/2016
Bosch
khờ
soda
Mel
##7,4%
TOEFL
thẹn
uric
Amber
##tz
4-4
Rá
xo
toang
##ẩu
Sảng
hormon
##BTNMT
Thiê
rởm
Đoài
Rộ
hu
Control
Tèo
thồ
VJC
mú
19-8
víu
ú
ĐTĐ
##7,3%
corticoid
muồi
Hoạch
VietnamPlus
ĐBP
##yo
##khấm
##6,4%
Lí
211
Far
behavior
Valley
Ousmane
Đem
vồ
##Những
Shanghai
display
Deschamps
Her
31/12/2015
##ăm
305
##illum
##eque
Tro
5.0
Kiển
đanh
##dy
Abraham
Havana
nhẵn
Litva
SCB
##hiẹ
Cưỡ
15-7
##the
Lanh
Leipzig
Hadid
dốt
phăng
30-9
38.000
dỗi
CPU
##aute
work
Rèn
CM
Southgate
ĐCTT
385
Silver
rinh
Xong
gạc
MSB
##,84%
VT
quẫn
##5,2%
Hận
Sporting
Thuộc
##MB
Gucci
LDP
Leone
##Doanh
##Đây
233
##2,2%
Cyrus
Flamingo
lặ
##nước
Spider
Oliver
5.000.000
EPA
1940
project
Trô
Omega
Minzy
##set
ĐHĐCĐ
Vorachith
Republic
##ức
Line
suô
Lải
TTr
12-6
##87
Xiao
Koi
Moyes
Volvo
Venus
15-3
SOS
##ua
267
săm
Vả
Vỡ
Rossi
Rông
Nan
gióng
301
1951
##yahoo
GrabBike
consec
Jamal
Gran
Block
##-13
Panmunjom
Nole
Colombo
Joo
10-3
##ll
Woods
##TRONG
Kante
Nhữ
dance
9999
##Nasdaq
Thấm
Women
Kan
Joachim
order
Turin
adi
##62
Bra
4-10
Joao
Persie
setup
Espanyol
Hùm
Now
Rod
Cambodia
virút
74%
6,6%
7,4
August
gòn
Bosnia
Lopetegui
Queensland
combo
Fi
8-11
1,8%
PVS
Solar
rì
355
phiê
loã
##chenko
Café
##vigli
full
Dark
eos
deser
rubella
esse
muội
nịnh
Emily
CBNV
hững
gơ
##2,7%
moi
##Man
8,2
1,25
PVD
Alli
5-3
gar
##ocha
##đô
Dailymail
TTGT
Emmy
830
Dâng
##tu
Stefan
Nicole
anim
main
sector
##cần
##CST
Balotelli
Trắc
Futures
Mí
Walter
Phiêu
Sếp
Kali
Duis
QUANG
Đản
Dhabi
SOHR
##sides
##VH
295
Ven
Giã
##4,1%
##VPCP
Ambassador
Umtiti
iTunes
MoMo
caffeine
##,00
rúp
22,5
gel
Hấp
34.000
##Settings
##tinh
##tione
GO
##,76%
vg
Ny
Corolla
Goldman
Phẩm
System
##ness
##point
##9,3%
##ỳ
mé
##wi
BXD
241
##lu
##trước
31-5
SS
298
##fugia
VTR
un
DT
Holding
##rọi
Forest
implement
##lnk
Deportivo
##BTTTT
Government
##,45%
##ite
Links
Rơ
6,2%
##sy
Busquets
Heritage
magni
Remix
##3,7%
26-6
##/1/2014
Bruce
##,65%
2-7
##CS
9,5%
##,98%
251
5/2015
Henderson
Shiite
Spurs
4,8%
SCG
thiu
610
31-3
##rure
##/5/2013
363
##ecat
CÁC
Catalunya
giỡn
Vinmart
Ernesto
##ược
##Hoàng
##ue
phiệt
##/08/2017
268
sequi
ES
ips
##ollit
VinaCapital
Rui
khùng
26-3
4/2015
Cyprus
continue
Plan
##chưa
##5,6%
19-5
Praha
Arthur
Biê
Lead
##odit
khiên
3.2
##,68%
Quái
Miranda
Sunderland
zoom
AirAsia
products
Jerome
##sis
SD
Soạ
Kit
##tập
##phone
bẽ
##derit
Citi
Set
254
gả
Sociedad
##NO
Pắk
##chủ
Douma
Down
##,15%
Dance
Hello
Pak
##nulla
2.3
##-150
##oái
##/1997
##Time
##giá
##modi
Beyonce
khò
Zakharova
khư
amet
QNa
Terra
Stan
##BCA
Thiem
Soon
AB
officia
tempora
##,52%
##cepteur
##culpa
Helsinki
fugit
cupid
VEAM
FICA
were
##pisci
##tetur
##untur
PGĐ
20-3
##umqua
Ibrahim
##isquam
Terry
nesc
sint
3.700
Duệ
##ID
##ford
##iunt
##cầu
Mảng
volupta
334
##pernatur
KHĐT
##iatur
repre
occa
Maryland
Mệnh
##,50
Săn
khất
8,4
móp
263
Rain
15-4
group
3,6%
25-6
Ám
Moldova
Holiday
Carnival
Hull
##less
Gray
##kết
##tor
Light
Kono
Bì
##ỉa
Tròn
##pin
8/2015
8,6
Chong
##hặt
Indian
6-10
Cape
Cháo
Mả
Phớc
Mịch
232
help
##-12-2018
##hám
Bear
VW
post
##ọc
##ip
2,6%
Mogherini
Deutsche
##-160
Dì
##/3/2014
28-6
##ell
OM
##awaco
Hư
ĐTNĐ
Word
Story
Alice
10-7
11:00
##,56%
##SV
24-6
##mann
mafia
Ruộng
Đakrông
nong
##-95
Cay
##800
ad
Karim
national
##gate
##,42%
Ash
##stein
##sson
PVTEX
Shanahan
Palm
##,38%
Classic
##độ
Mân
kham
##ốm
Nhứ
##/9
273
activit
##,65
Aquino
Nxb
WannaCry
folic
Khuyên
Cech
2012-2013
Vâ
999
chằm
news
Trust
Vo
15-9
Filip
NHK
276
Schweinsteiger
Infinity
AMG
ADIZ
##play
Falcon
PK
##pha
Homs
UK
##đại
Gerard
Hựu
Rojo
handmade
##wan
Concert
##,25%
Bus
##Khi
Choe
Yuri
búi
##ưới
15-5
238
Siam
Marquez
Dính
đìa
Hẹn
Kình
nhám
Sunni
286
##Do
##iếu
tịt
50-100
8,8
Vó
Dallas
Chạm
AMOLED
1/7/2016
10.000.000
KTTT
##ngân
while
##85
Ren
chum
##Cuba
##ika
sên
cocaine
Síp
SGD
Force
3.800
18,5
Wat
Jens
Gaddafi
businesses
barie
real
##ning
##DN
91%
##3,8%
NGH
MA
##eva
Hue
EV
##5,5%
##tion
4/2014
dântỉnh
##gen
##les
Yi
##3,5%
More
Astana
trề
Mayweather
##town
Xiển
##and
312
Chao
Box
toé
Unai
Austin
mail
##/1995
Bào
##MTN
##/8/2013
asen
hù
dả
SU
##-2005
analog
##chan
##az
Kiatisuk
photocopy
chửng
Vietbank
##endall
Páo
7,9
317
gala
MBA
89%
##In
##Hoà
Pradesh
Carlsberg
BVH
##ằm
rượ
buffet
Warner
##Tôi
##/05/2017
##MA
LP
##Tại
326
PE
duyê
Flappy
Obamacare
##TTCP
Len
26-29
nộm
##76
##-2000
510
##/1999
Khau
5,8%
Gonzal
nượp
Vogue
##vì
20-30%
Prayuth
3.1
Đak
Deep
Te
25-4
##dar
5-5
##LTP
cuồn
6-6
Phăn
##Sisi
Housing
##,26%
McLaren
##pro
PNVN
4.300
ComB
336
##Thành
##ola
Casemiro
Fulbright
Metropole
Wolfsburg
NVQS
##Trường
VNAH
HDR
##book
Há
Mạ
SAA
KQXS
Adele
257
Slim
ngoằn
8,7
Tò
Sò
##eda
Fund
Điêu
Đắ
##,47%
100-200
##4,8%
Enterprise
Bull
Vinaphone
##che
0,05
Fort
2,2%
quyệt
Ngo
274
##ét
Trạc
Ghosn
Đoa
diệp
4.800
008
31-7
Summer
lẹ
##ew
Bong
Load
Law
##6,9%
Explorer
2040
Sachs
iPod
Europe
23-3
Like
-3
9,8
20-10
##ứng
Getafe
Ottawa
rươ
trấu
KTXH
HPV
capital
##nhân
2,7%
9,6
##,23%
Taro
Verizon
2021-2025
Olivier
violin
Chuông
##8,5%
##ước
##hor
Đọ
left
increase
Schneider
kayak
THÔNG
Sy
ghẹo
Quanh
Dâu
##QP
Hoon
##,33%
Make
phơn
12-7
11-7
Reus
Parkinson
Chuột
##Nhà
2.9
Sàng
GAP
27-30
BIC
##mart
tý
##/1994
pô
Cau
2-8
Hiddink
Marilyn
XSMN
Ministry
##long
##hành
##Thể
Nú
khoải
##,05%
##ẹt
chình
Paralympic
##mp
Đĩa
Cày
7,3%
Jesse
PTI
nhím
##lên
BA
##gar
Pre
Thaksin
Jungkook
Marawi
HNG
##Thu
##7,2%
Page
Kun
huyên
28-8
##aki
22-3
PD
26-4
Diê
Vietnamplus
Uyển
##FONT
##ene
750.000
nhản
30-8
vái
1200
##KH
13-6
Tắt
NutiFood
14-6
Latakia
ừ
1.1
Xâ
29-8
vó
Giản
##32-35
Paolo
Phantom
đận
##,32%
559
##ận
dậ
Radio
288
##Từ
Kin
4-8
Association
Montenegro
PVFCCo
Truông
KHÁNH
chườm
text
CLV
253
##5,8%
2,3%
Cuô
7.5
##-0
part
##jpg
Bonucci
Friesland
FECON
Ceres
100/2015
2014-2019
chíp
Trộn
6,3%
RC
Monte
##,28%
0,9
Wonder
6,9%
Osius
Walmart
Irina
toilet
Temer
CSIS
##kh
Chin
##thời
Lula
##.200
##iya
Xơ
láo
1941
9,2
##viet
12/2014
##liên
partnership
Comex
IR
##bao
Diều
##,40
##Hiện
nườ
lình
mỏm
Fortune
Gulen
Xiêm
Casillas
Phà
Dior
5-10%
##video
Evans
##elli
10/2014
Toure
##hóng
Dae
##4,5%
##-01
Whit
jazz
Vietrantour
6/2014
CCTV
##Trước
30-11
Elite
Vinci
##húng
##át
tày
Pá
##side
30-3
Giàn
##Go
Baldwin
Sumitomo
amiăng
enterprises
Pablo
jean
##TCT
##tour
TCB
bặt
19-7
Mori
REE
MM
Kushner
PCLB
##đạt
##điểm
##/1945
##HD
27-6
##8,1%
##-25%
322
ngông
8.500
##dan
##ROUND
Sukhoi
gổ
##ộc
AMD
##Chính
Spark
820
##ềnh
nhằng
VPB
Esper
Hall
TBT
##+500
Gangwon
Sadio
Virgin
love
##NT
basa
920
10-4
##lại
Georgin
##/06
##,14%
9-12
3,7%
##Sa
##2,6%
Fran
20-9
Titan
Consumer
Songkrasin
Potro
phước
BRICS
367
##Hồ
HK
Thỏ
##hớp
Lở
need
phuy
rớ
##uri
##,95%
Kilo
Tea
Pereira
3,2%
BACK
Raptor
##Nusra
##Trump
nguyê
Thùng
##Đông
good
19-9
rủa
Bee
##,34%
Gardens
##yama
9,3
Sumatra
Vuitton
Christine
Ericsson
Ferdinand
##ăn
Gián
1,9%
2.8
FB
Es
##ít
Zlata
đì
Muller
Chuck
xoà
##động
675
##ade
tành
2,4%
##dìm
Đờn
Industry
##lông
##Th
IOC
khàn
##Văn
nỏ
2013-2018
Viẹ
ấ
EB
31.000
Tem
##oằn
FM
5.200
Cốt
tè
OPCW
Levante
THVL
##pô
Skype
Secretary
dúi
4-9
555
NHM
Greg
Meng
##rs
425
##,58%
Bayer
##-40
Allianz
Pellegrini
Sulawes
jw
Ashton
Attapeu
##Ngoài
990
TTXH
Đàng
##ous
##,37%
ngoai
##,95
Laura
##yl
TTYT
##won
Otto
Giơ
930
phư
concert
##8,3%
Goal
##,06%
##3,4%
uổng
Giốc
Mahmoud
223
such
Tuồng
Rice
##giao
kW
RB
Khô
##pen
kị
##sha
3/2014
##gu
22-5
CPP
##he
AIA
Par
QUY
9-5
Fitch
Lưỡng
##EC
PG
##2,9%
2,8%
giê
image
Copenhagen
Kawasaki
phũ
Ngưỡng
Hawking
Ventures
25-3
RoK
##Phạm
Rich
Redm
ea
670
##ISA
19,5
6-5
382
Russia
đầ
##sê
Aegis
Stewart
promote
Buk
QCG
##tài
yểu
21-6
vâng
mõm
##báo
##mon
##ữ
rộp
place
30-10
20-8
AL
QT
Julie
23-9
##KV
354
mền
Pù
Budapest
Jamaica
Empire
Jimmy
##ray
WiFi
Gate
DANH
20-7
Chớ
##diễn
ff
##CNC
25-8
Ten
Twin
Prince
278
Composite
Tucson
gươm
2012-2017
##,86%
xộ
Bolt
Tata
##ele
10-6
8-8
##kan
XO
##dai
##ser
Huyndai
ĐVHD
10-5
##Australia
306
nhãng
780
hí
GIA
20,5
Bahamas
Kylie
GPXD
voọc
Katie
nickname
Hunter
Vedan
Willian
##2,5%
##dịch
##3,2%
##,11
THT
PKK
##ington
24-4
nhẽ
Fukuoka
vẩn
##400
Pà
Lock
bõ
nghiẹ
17-7
Petr
TNG
##94
Benitez
Falcao
Isuzu
nilông
BGĐT
Huddersfield
gàu
Lách
phom
Kobe
Helen
Audio
ngước
Ward
##tr
economy
Azov
gấc
Haiyan
nghé
##CA
Riề
Led
##,43%
##Sham
##ping
Hero
luy
261
Woodward
Phèo
Caribbean
nẹp
9,7
fair
IPS
Mắc
590
##đều
ngan
Rush
SDĐ
huâ
##.990.000
Concept
##rry
##-41
Quebec
Tourism
sủi
##ẹo
nhót
Rin
##JLL
Hạo
EVNNPT
Iskander
Cocobay
Giggs
Nhảy
VITM
237
##hee
##,03%
phone
##bay
##MDB
303
##hyun
Platini
##ER
rói
Kalibr
EAEU
thổn
##,49%
June
Kyle
Cavusoglu
Zenfone
Rằng
Cisco
Markle
##ÁCH
Die
##khiến
Wells
Shell
Dion
7,6%
4.4
##sản
##,99%
##50,000
##Kim
Subaru
shipper
8-7
Tề
##berg
##uy
##woo
230.000
VINASA
sí
Lawrence
Montreal
Soobin
##/02/2017
##sar
Ngả
Bổng
7-1
tră
KC
3-10
Search
364
RX
Von
5,4%
Tal
8-1
khố
300%
BQLDA
15-6
281
Solo
16-6
##xx
##Điện
##,89%
20-4
30-5
Boys
18-3
alumin
WeChat
Dreamliner
UBCKNN
boxing
##97
17-6
##vụ
##xít
tuýt
##/1969
NNT
Back
Andres
8/2014
cheo
Bụ
##,90
##pe
##port
##1,6%
Niger
Boutique
Javier
êkíp
dượt
balo
##/1996
15-18
Sendo
##,69%
##MC
##Net
##ĩ
##/4/2013
xình
Pia
audio
##tex
12-4
khóa
Wembley
bonsai
open
Halep
Magna
giũa
##ễu
ship
DI
##-12-2017
They
tưởi
##Title
##,13%
15-11
Stars
cữ
##DV
French
offline
BMI
Edu
327
gãi
25-11
##dân
Moore
5.1
Der
lòi
10,5%
337
##5,4%
under
##day
QTDND
ngỗng
PIN
##air
Nath
26-7
##EN
##HN
4.700
MBS
##GD
12,5%
21-4
talk
nán
27-9
##ino
With
Grant
Lindelof
CSKA
Muộn
Milner
1/2000
thỉu
who
1-11
Met
PVP
42.000
lơi
pháthiện
##ì
dà
Cindy
Missouri
Zverev
Bravo
Maple
##-100
##Xã
enzym
##đơn
ETC
31-10
##we
2014-2016
Chau
##0,1%
khướ
KĐTM
GEF
Fernandinho
VEPR
VinID
Depay
Wigo
3,3%
Vardy
##AM
10-1
##châu
Sandro
##thị
##PC
Call
Illinois
Asyr
SSCĐ
Ricardo
SAT
Accord
##tus
leaders
BMP
##Ma
##Ngân
20-6
4,3%
blue
##ves
Wyndham
default
Kristen
Xiếc
Geographic
SSD
##99.000
##ud
##tha
##Người
per
19-6
27-2
7,8%
Ngâ
##imex
diếp
Check
12,7
ballet
Sub
18-21
tie
Ngao
50-70
Chua
##end
25-7
Saleh
##7,9%
Mina
Thàng
##HT
Monroe
cocktail
OnePlus
drone
Forum
TUY
PCCCR
Service
23-7
11-3
##.500
lụ
##win
##tv
IL
29-6
Siem
##weight
14-5
##NIC
307
chờn
##7,7%
31-8
##DP
clo
##time
Khao
Nathan
##ano
##group
Cara
Nak
##pan
30-7
##-47
ATK
Brooklyn
Blatter
Scarlett
##,57%
MAI
Wake
ximăng
MWC
Crown
take
##/11/2011
##per
15-10
Nord
cọp
11-4
##-1-2019
4-2-3-1
Property
EcoSport
Raiola
Bishop
module
HBO
##,74%
Money
##gh
329
##6,2%
lạp
##9,2%
##8,4%
##ut
Chê
##PS
Nishikori
XDNTM
Kompany
Hebdo
hécta
Pác
DWT
vèo
7-7
Andreas
xuể
Depp
##chai
Cash
##VC
##break
##9,7%
##trở
309
##98
mường
2,9%
Hokkaido
Joshua
Moreno
giẻ
Partners
##ris
Coupe
Services
14-3
1,75
##yêu
##đất
3-8
hă
Hadi
Ve
##chol
266
2-10
##,53%
##ska
6-11
28-3
lithium
Carrick
Army
Family
THVN
HĐH
VCBS
##FT
##Campina
nè
##Việc
26-9
nhặn
Har
Head
họa
Elle
##,41%
7/2014
Asahi
Madonna
ballad
By
Linda
VBF
Altyn
16-5
into
24-3
371
##,78%
PS
taekwondo
Jeffrey
Mastercard
WWF
nấng
nhẽo
gáp
Girls
##úa
nải
525
##EP
PSV
##Vì
TDM
ii
##eline
sỏ
4.5
sale
##,39%
Ederson
Getty
Daewoo
##tai
thoạt
Panorama
Marca
Hans
Khế
central
##,96
cui
Janet
Andrei
Pany
phảng
ac
31-12
318
VCPMC
Kei
##sia
5,1%
10-8
CNG
24-5
Wars
Fuji
Eng
9/2014
Tánh
núc
14-15
Thô
Rosario
relative
Judo
Hindu
##ờng
Càn
pano
nhố
20-5
##MS
How
thiếc
Mach
AH
xâ
##kota
##mua
Urban
com
##,10
giũ
Johansson
29.000
787-9
Didier
VML
##Alvaro
##đun
Film
##/1989
23-6
##ada
tỷđồng
##Tr
lạt
##oàn
short
##,49
Hey
8-6
Hànộimới
7,2%
3,8%
SO
tuabin
ĐKKD
Heid
lú
Bổn
##af
9,1
Ander
##,48%
Care
79%
Hối
Ngạc
Kiatisak
Sunday
##7,1%
12-9
khỉnh
Kiêm
##Ban
##Lênin
Curie
##,60
9-8
KIA
##tiền
Joy
##9,1%
5/2014
2021-2030
lỳ
nhẹt
27-3
3-9
16-4
##,36%
13,5%
747
##,54%
22-4
SG
Som
Accent
player
Claudio
Nicholas
Ryabkov
Nevada
Infonet
paracetamol
lỉnh
tóp
Yulia
lủ
Canxi
Ang
4.400
636
March
13-8
##bảo
##bóng
331
phàng
Bernardo
##ều
21-8
Toả
##/09
##,80
Chat
Outlander
Pencak
Sihamoni
Lagarde
Ninja
ANTQ
588
Chloe
official
tuốt
313
##tình
Dylan
##/6
##DI
Vắc
KDL
sì
289
##ỷ
##,79%
Bel
Acer
Lauren
##,42
##ph
##bra
Assistant
Exynos
##stone
cầy
30-40%
##Pro
25-30
##,29%
##aya
YG
##HKTT
Gym
18-6
##je
11,5%
21-9
##/1946
##ẽ
Celtic
Casino
Romero
##Co
Khalid
Giusepp
Pele
29-5
25-5
##mang
building
##xuất
##khoảng
12-3
16-8
plan
##ư
##stin
Thă
lã
Himalaya
district
êkip
##DA
##ming
Marin
Discovery
Kumar
5,6%
Đốt
15-12
Cen
format
last
Chắp
710
Over
Jar
Mars
##ks
SPC
##pas
Vắng
Thompson
Bradley
2020-2025
Universal
VCG
Rahee
kịt
18-5
##6,7%
##ld
Clark
20-2
650.000
1-12
rệ
Kuo
##,62%
##let
Chip
##cấp
PVTex
Xoay
ĐNa
Diva
Wonders
1936
28-2
Fabio
##ert
##road
##ram
Sá
Dave
##pi
##0,6%
##khẳng
24-9
2.7
284
BVN
30/2
nâ
Zero
Barbara
Oslo
carton
Woman
Engineering
GHPGVN
Harper
Kid
Nặm
Katy
đuô
phung
2.900
1.250
##,44%
##TQ
##tal
262
7-4
Cinema
##fer
DongA
Ribery
Brugge
Modern
skip
0,25%
XM
007
##,04%
opera
Mẩy
##,75
Hâ
##suke
Centre
TNT
19-22
##/100
Josh
3,4%
##vietnam
Monsanto
Platinum
Granada
TISCO
OSCE
Fernandes
gấm
240.000
##/1968
##ns
7,1%
KIM
##/1991
##ovich
Tuchel
Jetstar
rứt
Dennis
Ranieri
##ant
Ngỡ
28-4
Nhường
loé
##ft
458
pen
Parker
##Truyền
Sh
nục
tể
4.1
8,1
##-130
725
1939
21,5
Sapporo
Prague
Torino
kiwi
29-4
nhoè
gout
Sạch
Nhá
beng
27/7/194
7-3
5,7%
##chuyển
##măng
Gigi
##ib
##Nếu
26-2
Pao
Trốn
Analytica
number
282
Warsaw
##ơm
##,46%
24,5
19-4
##/8
499
##ếc
dãn
Photos
thớ
3,9%
12-8
##bit
Mindanao
Puigdemont
José
Neville
Jerry
Xy
hói
Trới
2011-2012
Bân
nhão
Nur
##tháng
Mito
gặng
Toshiy
Mix
##/1993
##,08
##gram
12-15
Carvajal
Buồm
Stanley
Cyber
Captain
##,70
tulip
vid
##huyện
9-9
##Về
Band
##ợt
í
##,64%
413
585
Phillip
Bad
##,72
but
Ethanol
ABBANK
Tournament
Tivi
liếm
##150
##3,6%
Trăn
19-3
HMS
46/2016/
##6,1%
##nder
##,66%
##-1-2018
Pat
Ama
dẹ
BQP
##iz
11-6
Hana
##oa
chác
##ạt
Den
cở
##lần
Burundi
Snapchat
Kansai
ngoặc
+0
Rousseff
419
Fa
22-7
strong
14-9
##,04
016
48.000
PMI
##color
16-7
37.000
29-9
Gal
el
##0,5%
##ecurities
JETRO
thóp
XDCB
ngụm
copy
##sport
8,9
##tự
6000
Poseidon
Burkina
ICAO
##Cabinet
Faso
chửa
Southern
EDM
Bengal
##-37
GMP
1943
##can
Jacob
3,1%
##RO
##onic
##,12%
LAN
Cross
##CK
22-8
##.500.000
##3/13
980
##xxx
Container
Rwanda
VAFI
smartwatch
Charlotte
Rạnh
nua
April
8503
ROM
13-3
Trans
Steel
##sang
Nem
big
351
cộc
##0,8%
##BĐQ
Bugatti
investors
##/1954
Phô
##trung
##Vũ
TPCP
Hub
Chairman
##Hồng
Bright
Honor
40-60
Er
BM
Baker
Ác
Sch
Xôn
4,6%
EVIPA
Hilux
slogan
Blind
Tong
##City
lụng
compac
power
SĐT
3.000.000
mùn
Kosovo
Dollar
VICEM
07:00
Supachai
Naomi
Ké
Find
9-1
##Khuê
##Thông
##Khánh
##hua
Seong
4,4%
##,88%
Yaya
Beer
25-9
VRE
Talk
Techo
Leroy
Apartment
Mandala
Interest
HNBVN
Faros
##BOG
rating
##ani
Boy
ALC
Vice
Trôm
386
Philips
THX
##thanh
##kar
Last
405
##uốc
Xạ
9,4
##mai
Wen
14-8
ghề
297
##3,9%
Islamabad
Balkan
zalo
Kishida
Alphabet
cợt
Carey
MOU
17-8
383
Kao
##mat
bluechip
##Dragon
##uể
##,27%
Dar
Bal
Calisto
Picasso
Hughes
BĐTV
Excel
NCKH
toác
Joker
ruble
26-5
##/2/2014
##ren
NSX
MPV
##NC
##Điều
##ười
##zen
##giờ
account
Einstein
Whitmore
Rikvip
FTSE
ĐBKK
Fiat
Vinson
##rd
##0,3%
Godin
##GS
Banker
##KTN
12-11
##hoen
##.350
##IT
##kiểm
28-5
Melia
##tro
CAN
##zan
##of
Us
##MO
15-2
##,000,000
##/1992
September
Eriksson
crop
18-7
10/2019
280.000
13-5
28-9
##-90%
Sầu
art
Payet
Sho
ITA
Tát
5.400
Pồ
Ah
Macbook
highlights
Eibar
Tite
5,2%
##/15
##,92
1944
LH
##hội
21-7
đoạ
##pad
##AS
See
##GT
269
ĐK
##,91%
Thủy
Cole
Raglai
Nixon
VinPro
URC
XTTM
Pắc
stream
328
##250
##Thảo
##fu
##gây
chợp
##tation
Báu
##2,4%
##zawa
##yang
##,11%
hì
##/1959
Chiellini
Council
Florentino
Kaesong
Pokémon
Traphaco
microSD
Gonzalez
Jonas
Posco
14-7
Reap
##rn
Nico
8.3
CSU
23-4
25-10
Hin
kìa
##VPHC
##cially
##,81%
##HC
Philipp
Hak
HCMC
Lightning
Sirius
July
Nóc
##XD
2/9/1945
PTDT
Tít
##HĐ
##đây
##Uỷ
##ding
1/2019.
Kent
##6+
##ona
##PF
Thuy
11-11
MD
Typhoon
21-3
Genoa
Helix
truân
Chartered
Flynn
17-10
rần
Piano
CII
PMU
Rò
##-5-2016
Nation
Bụt
1942
488
Patrici
Ut
PAC
MRI
Zone
##AI
##Thổ
##ira
mót
17-20
Eun
##yev
##-2004
Carr
270.000
##wha
Biegun
Sturridge
Ngon
NSW
Hawk
760
Thor
##-5-2019
22-6
17-9
##ito
10,2
1-2019
KBC
##ose
259
HCC
16-9
Afrin
24-8
vù
##LA
Rama
##sak
##Smart
Cap
Bros
TY
Rick
Sín
550.000
17-4
Ky
Pantsir
tởm
Athletic
IEA
Sil
Schmidt
dọ
TCCSĐ
Kí
Stevens
283
BTNMT
Toại
Ge
##ửng
##truyền
most
Sala
##Plus
KTX
Mei
Kathmandu
Zurich
##3.857.1
biogas
Quynh
##,36
##oleil
##,19
espe
CTr
##CM
sọt
Vá
##ase
3/2019.
##DDING
Infantino
Fillon
PDF
sến
Hybrid
##ship
Way
##-10-2018
8-4
584
##900
300,000
API
2013-2015
##,77%
##,55%
47.000
20-12
18-4
##ky
DIC
Chóng
nhoi
des
##rol
JPY
QNCN
35-38
Xẩm
##LOTT
rap
##urama
##trường
VPA
11/2014
Take
Euphrates
Gomes
QNĐT
Sand
14-2
tum
21-5
Mần
VFA
##đẹp
chạ
security
435
18-8
##zy
770
##.850
Britney
MotoGP
Mandela
KWh
Riedl
##,25
##ac
##non
##hợp
Sình
271
item
##0-50%
##tes
625
16-3
Kay
##ôcôla
Geleximco
Kanagawa
Mustafi
GrabTaxi
Phomvihane
Institute
Klaus
Volodymyr
VSMT
Guillaume
Victory
001
##tuoitre
14-4
CEP
26-8
XSMT
22-2
đị
ISI
437
388
##ào
##-200
Christchurch
Hummels
Salisbury
EuroCham
Diesel
Malaga
dioxide
Blancos
Nakhon
Gar
##back
27-5
salon
Pơ
Au
2/2015
##ato
##World
Vần
nuô
Karen
10-9
810
trảm
Rutte
Liền
Thrones
Dangda
Russell
Xhaka
6/2013
25-2
HĐĐT
BYT
Sáp
Michelin
##rông
Pả
đoản
19-2
loát
Đun
Atlantic
én
Anton
##nd
##city
##);
Chặn
officetel
Samrin
31/12/2019
70.3
Luzon
modem
Girl
##-3-2018
##pal
7.200
Bae
475
##AF
##ure
##ịt
Je
Roberts
Lả
##Toàn
APT
Elsa
##shire
1/1/2015
9-4
##/6/2012
9-7
##ĐN
quặn
Lithuania
Paradise
##Vietnam
Valdes
Wanda
Heather
BHD
both
6,4%
##ive
Dual
##cuộc
Lei
##ES
Maha
IA
##/12/2011
##ppi
Maxim
OANA
##ặp
Bur
ASIAN
GTNT
ròi
Dế
##óc
Federica
##,05
Indiana
carat
phới
##tre
Lite
##,57
bẹn
Dang
##BC
12-1
##din
PwC
Fun
ANZ
Elly
Hacker
790
50.000.000
Vực
Price
Lem
food
fr
Diêu
Marx
##6,5%
name
##-10%
Bit
Mad
Jeong
Feng
Deloitte
delegation
KVPT
##,61%
##đội
European
trịch
CSDL
Chở
Viber
##,92%
mangan
12.500
16-11
##ép
Download
Rù
Bướ
##pon
images
401
##+7
Bôn
##sung
##venpick
Boateng
11-1
Sói
týp
28-7
Hospital
Feed
Com
##hara
Webb
320.000
22-12
2015-2017
Palu
##định
Cat
##dor
7.0
##ware
18-11
7-12
Maserati
Holmes
Merlo
Hóa
12-10
Sedan
##aj
395
18+
##nhằm
##each
Moh
Bành
##Đào
SCO
7,7%
##bắt
HL
##ách
##TI
##box
Gerrard
effort
miligam
Ghost
cherry
ESPN
Vissan
PLX
Kritenbrink
IEC
UBT
TTF
Newton
##burg
kháu
1917
9-6
##giúp
Origi
TRI
##ology
3-2018
##omBank
##ưỡng
##,43
Chase
Hemsworth
KOICA
Wisconsin
Armata
15-1
BKAV
VNEN
##6,8%
ABAC
8,36%
4.2
7,4%
Pete
5.600
xéo
##ds
##ab
Mố
MHB
##lee
Quàng
17-5
3.100
Bui
NVL
Bolsonaro
Iowa
teaser
BLGĐ
reach
BUV
lứt
##,31%
VietC
##care
100.000.000
nhụ
##Book
##bằng
10/2013
kheo
Mũ
Sven
Assembly
CNQSDĐ
##ốp
riêu
Winner
Collagen
Resorts
Kam
ROE
##áng
##/1988
##red
hùn
740
##ặt
##bike
gợ
12/2013
##,93%
##ịnh
Sentosa
Toulouse
Japanese
Joel
##1.000
construction
global
23-10
Bắp
30-50
vối
Za
Siti
Hz
2012-2015
POWER
21-2
##sch
Walt
18-9
22-10
Giấu
Thoan
nitrat
##,83%
##triển
##bà
site
##Iran
Spring
Đe
BrahMos
Defense
Donnarumma
Ducati
Hwasong
Philadelphia
tĩu
HUTECH
Kazan
nít
eBay
rảo
13-9
Lille
16-2
ngh
##cu
##1,2%
VNE
10-2018
Nong
Mì
Rosneft
##igi
Pán
Philippine
Heart
would
Guzman
Foster
Chuyền
Jimin
Lugansk
nhèm
##RI
11,6
Siro
##lores
43.000
VUS
ớn
Zin
##The
##ets
311
18-10
Seng
Avatar
Darmian
Norwich
Technologies
khiễng
xụp
VDB
Elantra
Virgil
##,82%
##Me
Campbell
border
nhảnh
23-2
7/2013
PVX
##Gò
Stream
##One
314
TO
Đoá
Ardern
MasterCard
Interfax
ceremony
Marshall
TTKS
DHG
CFO
EOS
Korean
nhăng
0,05%
England
ANĐT
Anland
sủng
23-5
Mrs
phàm
##hậu
4.600
5.700
5.300
Manor
Quát
##COLOR
AM
UDIC
260.000
##gui
##,64
##dia
Southeast
5.2
stylist
Airbnb
NHÂN
UPU
Macri
quẩy
Phác
bướ
##9.000
39.000
vón
##,18%
UVTV
Đòn
293
Om
Navigos
Steinmeier
Lilama
AirPods
Osama
##bel
Madison
23-11
##tar
##90.000
LX
BHN
Abrams
##cty
9-3
Ball
##ever
##/11/2019
870
8,3%
meet
exchange
3.6
Auckland
Khamenei
Transerco
Ramadan
ABG
Sarkozy
##380
13-4
Fabian
Stones
LINE
24-7
we
190.000
23-8
Ein
Kara
968
Moura
5-12
nghiêp
Quạ
##đê
##tay
13-11
3/2018.
##/01/2015
##THPT
##lla
352
##BHXH
club
Aventador
Kovind
Stuttgart
Davies
Ceballos
McGregor
among
maz
4-2019
##máy
Logo
15-16
Đới
Eye
##ado
had
boost
##jun
Iris
346
17-3
BRI
4-2017
##,37
Endgame
19-12
Ksor
Nor
Christie
1938
sustainabl
##lar
##ống
free
##,07
Tệ
277
4-4-2
##anda
tăn
Cologne
Nippon
Chinese
Renzi
filler
production
Felip
Pom
According
sushi
Robertson
34-37
63/2014/
##TTr
rỏ
Nina
thiển
30.4
373
Lane
Charm
Hugh
##Baghdadi
##kiến
3.900
Multi
##giảm
Ak
Rí
Kienlongbank
Kẽ
##0.000
7-11
working
##ghi
##,28
##/1/2013
690
6.700
##cher
##Hg
##neo
Ván
size
Darussalam
Shibuya
##XPVPHC
Nikki
Tốp
Điếm
Industrie
##hôm
viẹ
845
Antonov
##-08
##hình
##cora
##CoV
##met
##ula
mếu
5,9%
Kaliningrad
attend
EEZ
Philipines
##,21
Bordeaux
Trọn
Loo
##ric
lủng
mơn
6.1
1600
box
##tới
Vista
Rafa
ém
##1000
##pur
Thinh
Alam
384
Vịt
##kham
Shu
##ủ
Mendes
Fiesta
Kuznetsov
Social
Pri
##...
CAO
Pico
Peng
26-11
##ala
Save
Herald
##ica
##ĐH
##rov
##,71
ICE
515
toanh
street
Cỗ
##New
349
12-2018
##Minh
22-9
improve
Brio
amidan
Christina
friendship
Sonata
Keith
Lãn
Stade
Ngừng
EIB
Bươ
nõ
Bai
##NV
840
JMG
11-8
Nghinh
##ari
Hum
##Mo
##lor
Tốn
Soul
##thuộc
Gianlu
1,65
DNS
411
Work
Walcott
BHTG
iphone
nướu
##3,1%
Finals
magie
2.6
Luồng
Gấm
##,33
##,16
mao
dựán
ICO
18-12
chạch
##,24
11-5
ngoa
12-14
432
##ME
##width
Ver
Changi
6-2019
287
13-10
##,32
##player
Đạc
Hươ
9,9
Daimler
Welbeck
Xpander
Vazquez
shopping
Harmony
ASUS
27-8
Storm
Transit
Pò
15-20%
##shan
phẩn
cún
bươu
rên
##zing
##2,8
##max
6/2019.
Alumin
Gangnam
Derby
dúm
Râu
125.000
19/19
1937
Bach
##tti
Tràn
291
##ợng
##ss
##Di
##taka
13-7
8,7%
28-11
Shakhtar
experience
should
flagship
357
Jenny
FARC
##ớp
##.250
Becker
##-80
FOX
your
Bavaria
Nacho
##,02
JP
##ide
##die
##DT
##hoàn
399
INS
16-19
Kat
nhè
trend
Tẩy
Laptop
Silat
Sayyaf
##IF
Andersen
##réo
ICD
348
Phiêng
Milos
điếm
Băn
polymer
fax
##ful
##PH
Rogers
AZ
##-39
13,3
phiếm
29-7
##yeon
17-2
Our
TDP
12-12
1400
24-2
suckhoedoisong
Rachel
BÁO
Takata
firms
Sharma
Ferrer
Amata
Alberto
24-10
DVC
##gon
Mỡ
##-4-2019
NHI
##,86
##-2003
Panda
Phâ
##ichi
##/14
##all
Dứ
##Singapore
chộ
Tiễn
##ánh
Bru
##ette
Haji
DF
##:00
Spiegel
Sagri
##xaydung
cultural
##hong
Glei
##khai
##ata
KB
368
##Phan
10-2
Khuya
vạy
regional
Beta
TTK
Fatta
GX
##ecilia
Thuở
trố
##alph
1929
Yale
vại
Bre
office
##EL
Khedira
Koscielny
Ronaldinho
NGÂN
Duda
Seven
##Intercontinental
Lily
NSLĐ
Director
APG
VietNam
10,8
##eb
##-135
3-11
##+000
Niêm
Tree
ngẩ
10,6
##cus
##Ra
Megan
##-11-2017
HOT
##Li
Graechen
Hitachi
Indochina
Kudlow
Yanukovych
Weinstein
366
31/12/2014
Innovation
Lorenzo
372
##pong
##/9/2012
Ab
##,82
415
575
##Tài
Mal
##ương
0236
Ciputra
Baidu
Tommy
##DF
MICE
Punggye
Hễ
TCDL
Kra
9,3%
SEAL
Bou
52.000
Wil
6-2017
##pol
Andrey
Sound
##TOP
28-10
408
Lâ
24-11
##qui
##Maybach
4.25
Nhùn
##ríu
lìm
Bhumibol
before
EVNCPC
Harley
Xín
Bề
Chiba
Hớ
What
##ther
Mason
##coli
lêu
Tar
Chá
Liễn
ENV
4-12
##trao
##elle
11,2
5.9
RAT
341
mói
3.3
IE
##,22
Kangaroo
Mistral
Mistura
Alaves
Cerato
Versace
Vinashinlines
PTSC
2100
muốt
##IDIFI
Duật
30/6/2018
855
Tù
970
thoă
686
Kamal
15.5
Sten
14-17
Ayun
485
##,51%
Suz
9.500
##uz
##ag
Đều
##ted
Petrovietnam
Rodong
Hưu
25-1
Wy
##lia
##,73%
Zara
Mara
##,62
Poster
technology
##,41
##ida
##Dự
##phim
##-7-2019
TCCN
Laos
quynhan
Tip
##,23
##Thị
au
Minnesota
Tevez
Moses
idol
21-12
Drian
Alain
Axit
đòng
44.000
Edin
3.9
##cell
Miến
Rami
Ry
445
##row
378
Phạ
##ice
##oka
##gy
27-11
9001
##Năm
##ella
##Cầu
##.750
Aramco
Corbyn
Soyuz
Vinicius
YHCT
shisha
Shinhan
khạc
Thong
areas
Sirisak
Oleg
18-20
review
TRA
IB
MINI
Clear
545
AAA
##,63
##/1973
tho
##Tụi
BGTVT
##ón
Sense
tuoitre
30-12
SAM
##TTC
1.350
12-2017
##SE
Adel
689
##eh
Tộ
Biền
##rie
Let
Vietbuild
Novotel
Tembin
through
Protein
Nhẹ
Hague
Ghen
##chiến
##thế
##SC
880
Nara
##dẫn
##hía
26-10
10/2018.
##,81
377
THTT
BK
376
Adams
##,94%
##art
360.000
Quýt
##moto
Kiền
Mevlu
Rohingya
Gordon
Kyushu
Mirage
Perth
Hector
HMD
bớp
Rực
##SPC
##Ho
2-11
system
##-1968
Eli
Mĩ
##wei
54.000
##ssa
VK
##Canel
##lease
##-38
Bryan
##TU
5-2018
##oong
Ezzor
hashtag
Tun
START
##zăng
##fe
##ett
chổ
##-12-2015
CNXH
LINH
##oni
Planet
##tôi
Lếu
##sai
CPĐT
23-1
Oxy
Evan
14-11
##ae
anti
##,54
GlobalGAP
Margaret
PHONG
Trading
cuội
Buffalo
##tạo
915
Negros
##KD
SBT
504
seri
##shin
##gẫu
best
##.550
12-5
Saul
Sou
Thom
mụ
thố
##Ha
Berdych
Detroit
lycopen
Karius
Não
2019-2021
BLV
ngụp
##ability
HOA
TA
Kwang
##TFP
Khôn
1/2018.
Duong
Horizon
Guo
OK
##nông
##Tech
Phun
Mách
Zaha
##QL
16-1
##/17
thỉ
4-2018
Sk
##ổ
Alessandr
7-2
Murphy
Obrador
ARMY
Ambrosio
students
PHAN
SANA
##rơ
GIANG
Blair
Búa
Masa
##del
Blanc
QBĐ
8-5
carb
38,5
11-2018
##-33
##,30
Rú
MR
Sale
Oxfa
Champion
1.500.000
Avanza
Pulitzer
Pirlo
Yellen
SBIC
kiềng
Vertu
27-10
Giza
1/7/2018
##,55
9/2018.
ĐSVN
Noong
Pie
lọng
TTATXH
9.300
Vlog
##ale
Foods
##,77
##,09%
##world
##ela
##ward
323
bự
391
4.7
Mister
29-10
create
ruô
Mayer
##,74
KBS
Lự
niêu
505
12-13
1,5-2
468
##-7-2018
##-76
Pang
11,3
Thani
JCB
##ial
##Bên
Bac
Sủ
Eagle
##Nm
Leganes
Trailblazer
Fernandez
Fiji
Phillipines
DHL
Sessions
Country
Dorado
nẹt
ransomware
Communication
socola
##HKQT
394
##mu
##/5/2012
1/2014
Dền
342
##/1972
Phình
25-12
Tomas
##tuyên
##eu
SBS
353
339
##wang
##Re
##lâm
Fer
Addis
16-10
CNA
666
DDCI
Warmbier
aspirin
period
Beatles
SoftBank
Navara
3.8
SDGs
Morsi
Gama
##thường
##,44
them
21-10
role
LHPNVN
##AP
Berg
10.1
##Du
Wal
##đăng
Mbps
9,2%
918
##LD
Momo
Mari
##thong
Galatasaray
Kepler
Malacca
Mascherano
Techfest
Yaris
Hrê
lết
Viêt
3-12
15,6
bôn
Claude
23,5
3.7
##,06
Hit
##rôn
USDA
soạng
##Có
27-1
##hệ
PVOIL
Adobe
Homestay
Vinafood
nitơ
Pictures
##ken
Kosy
100-150
Systems
Rộn
FSC
##oài
##ello
##car
##BQP
##,66
VSA
Danilo
11-10
Generali
VL
##zer
BAC
Ros
5/2013
Cươ
##,27
1-2018
Kerr
Hollyhock
traditional
Caroline
Khỉ
Baodautu
Kovacic
##ofitel
Mendy
nghành
gẫm
##sử
##Pay
##iềng
Wolf
##tta
Bild
##OL
HĐT
##sun
##LE
19-10
welcome
Atalanta
Olivia
hỷ
29-11
##ei
AMC
012
##yon
Mụ
sơmi
##đóng
ngổ
##,94
##dra
Sả
18-1
BTL
TMC
##only
1.050
##Xuân
9/2013
##5,1%
pic
##ros
IM
Rumani
STK
Flex
##yen
Salbutamol
Wijnald
cotton
06:00
urê
Apec
Chrysler
9,8%
Carles
##ps
##azaki
Sancho
##ạm
Sure
Khay
KD
##llison
26-12
Mồ
26,5
##mel
12/2018.
##oldmark
##bệnh
##nơ
358
4/2018.
DDoS
Llorente
Pyeongchang
ViOlympic
Nieto
education
TTXD
Mocha
##1,9%
19-11
Quyển
Chòi
land
##trang
+2
##,38
edge
6.200
Benz
##dal
Guy
835
9,7%
1:1
Tẻ
12,3
##sat
379
20-1
cacbon
Special
Mnangagwa
roaming
##ascara
Mị
Mytel
##jong
dộng
hip
VCSC
Kiêng
náy
338
Rớ
7,08%
Mauro
##etta
KQ
Ria
Quick
##worth
##,47
##,12
465
SAP
##ega
46.000
##quyết
FO
member
Beast
Triumph
ATIGA
60-90
Klara
Alderweireld
Youth
single
Chirac
núng
10.500
300-400
Wai
Born
##Vi
Des
95.000
888
chề
##ach
##ms
##Gia
##khách
Samurai
YEG
Dengue
ZenFone
Eddie
three
Dhaka
Shera
##í
And
Rita
5.6
Kona
Norman
Dam
Tablet
##over
045
Bean
Ola
##/02/2016
Huyê
##-2-2019
##kel
##text
11/2013
##QS
VBQPPL
Ariyana
Monsoon
Tennis
Jordi
Ró
##xy
ERP
##kawa
##expected
##XEM
Pr
14-12
nự
ậ
##.320
Kuni
Heat
##FA
tele
Connect
##HĐC
MMA
429
Dean
##Đến
0-100
Sà
THP
##Advanced
##Quang
Odessa
Nestle
Sprint
##rus
Solutions
Xo
GPU
Cạp
Sultan
##oạt
ke
##từng
Parkson
11,6%
10-2017
Ném
Roll
28-12
##say
##gel
khuân
Mag
433
1.10
quánh
Linux
##Pjanic
nhandan
UBKTTW
##soo
MyTV
huệ
Medical
QZ
##ena
##bus
##Hai
Glo
664
1927
##FI
4-11
ken
Rốt
##ique
##00,000
HQC
Saad
##DPM
youtube
##KS
ầ
##sáng
Bống
Carrie
Khảng
Zu
ngạn
digital
Navibank
Atlas
strengthen
nicotine
months
##hoon
860
Tổn
8/2013
CTXH
Romeo
thăn
404
Teen
##may
##tron
tằn
##8501
3-2019
##fo
##ens
2,0
Nộ
NX
Get
Knight
##val
28-1
Kyrgios
phablet
Hammond
according
clinker
Winter
cườm
xẹp
16-12
Under
Anti
Dịu
Timoth
Royce
Kurt
Hủ
league
##rak
1-1-2018
##-212
10,3
##850
Smile
210.000
9,1%
##FF
7,9%
vă
##bất
dử
##0,2%
Hope
vè
Matuid
ngoảnh
08:00
Acid
Only
QBV
##,97
chiểu
Side
Casa
cacao
four
##bee
Pascal
##sing
##/4/2011
##-15%
some
##Á
##IC
Hanel
##song
359
strategi
Hoi
12,6
8,4%
4/2013
##ẫy
Gem
leader
Nile
Thammasat
WhiteHat
desktop
Armstrong
Westlake
stent
hĩnh
Cherry
services
Vic
phúng
##uff
Place
+84
dantri
##yu
Cước
Ara
culture
Ismail
Châ
727
TCN
##sto
Tỏ
595
Ran
##Group
Mia
form
Rostov
Scandal
Wilbur
DĐDN
Mountain
đước
loè
Ngại
Chro
Đực
Things
##GL
##seong
xơi
Hui
718
Leaders
##125
NCS
AA
2/2014
6.2
10/2017.
Nanc
6.300
6.8
##/2021
##3/2013/
9-2017
Wilsh
boot
##sman
Owen
##ven
match
Vinasoy
Hermes
peso
##sopcast
##AD
Atlanta
CHDC
Keita
Byung
Đụn
##-132
##/1967
10-2016
iii
chá
sport
VD
JSC
##ings
môt
Muay
Jia
12,9
##BVHTTDL
Vp
##thiếu
##hin
Nagoya
FedEx
bauxite
CNRP
Hagel
nhuâ
Ice
##TE
Easy
17-11
13-12
PCTP
chột
##DC
jack
##/06/2014
Jacques
khuâ
Room
##ẻo
##hui
-2020
met
AF
Mat
##,29
##ami
Quen
##stra
##-06
##,61
Color
Movie
##700
##trình
energy
Oracle
Vichai
Szczesn
##ise
Hat
TVB
Hoffenheim
Suất
level
BCG
public
STT
Eui
Public
##Và
##working
344
##,73
agenc
392
vầ
##bal
Africa
21-11
##/10/2011
note
export
##75.000
5.800
hên
Quao
##,78
Ber
Chum
TD
Ajinomoto
Tsipras
Beverage
truật
Sampdoria
Myung
Case
PB
MISA
Lềnh
##VS
Orange
balô
30-1
Rivera
Truyê
chỉđạo
20.000.000
##eta
VINA
##4,8
434
##ễ
5-11
Buông
ase
396
##Thời
Dọn
##giáo
Brisbane
vedette
Kanye
THÁI
server
Xiêng
Giovanni
Guu
Hmeymim
##ATA
1/7/2017
Pú
##Con
Tak
4.100
19-1
##lock
Naga
##,34
##ON
LDL
417
thược
##ving
Samba
##,79
z
##-09
402
##nay
##her
##Max
16-18
ISP
##gam
Bâ
Nie
##INH
Sihanouk
Department
Hathaway
Spielberg
Udinese
Scholes
xuyết
Pass
Sophie
Dolby
nồm
Barnier
đẵng
KHTN
Salzburg
Dồn
ViệtNam
ATR
Dele
Tru
ACC
Aero
Kuril
Verge
11,2%
Kawa
Moss
-10
4/2019.
IFA
##iri
##ix
##,93
Đai
chiền
##sạch
##gùi
##ati
##/7/2012
social
418
thằn
Rap
Birmingham
Oregon
Yathotou
Auchan
Todd
crôm
18-2
0,03%
Dăm
GIÁ
Barr
NTT
##-42
ĐMST
LC
phẩ
Brenda
Med
##artus
10,2%
Bern
NC
Didi
Rubin
##2,5
Taka
Nhon
ĐMT
##5.000
017
##/1960
EX
##School
##-64
water
class
Jing
011
CAEXPO
Pajero
Petrobras
fintech
QCDC
ec
Rễ
QNK
Oseni
JVC
Kenny
back
Mỳ
##hoa
FV
##,39
6.400
Mor
##Mart
49.000
Lă
Colin
ANA
##COM
XC
Lì
##giữa
Walk
Avenue
Construction
Rắn
affirm
Almaz
dổi
Bing
Germain
Konstantin
Huda
Dione
Pepsi
wus
expresse
Hời
AV
##stan
13-2
Shim
Gao
PepsiC
##/16
##-45
22-1
LTT
##eter
suý
##News
Ling
##,18
CCVC
rằn
##ese
Christmas
FLEGT
Lloyd
cuỗm
management
FastGo
Mansour
Two
head
BáoQuân
JTC
##SDLĐ
6/2018.
CF
##ụ
387
PTT
6.800
Zhu
Eduardo
Mir
Bum
10/2012
14,7
PPC
book
DP
##lic
14-10
Mobiistar
Urenco
expand
rupee
Angelababy
1950-1953
great
TrustBank
00:00
Gogh
Robinson
Utah
Vol
MTQG
Mariano
steroid
ads
##GHB
##-6-2018
##.440
Chem
##BLDS
training
SR
##ancy
Fly
8,8%
sâ
##ỉ
##,03
##nce
Pv
##old
GR
##ins
##more
5-2017
##Trưởng
Grow
8-2018
trườn
##eung
Ertiga
Nauert
OutReach
Tutankhamun
Fusion
Louisiana
Playboy
Pichai
Zhao
chọt
Prông
7000
##7.000
VMS
MRCC
đọt
rướ
##ls
Uẩn
2-12
Mack
10,7
BNN
##FC
##chung
Guide
909
past
Marian
1925
DMC
2015-2018
##mura
7.7
3/2013
lởm
##tiêu
##ea
house
##young
Otamendi
background
industry
DVMTR
VinGroup
Stella
Snow
agree
##Ô
##manja
programme
##.650
Franz
##lle
Johan
12/2012
Freeland
ké
HTS
##ller
Dí
13-1
##skaya
ASF
##ocirc
13-14
27,5
910
8-2
Field
Cúng
WC
##rk
431
Nintendo
November
Sinmun
next
Hateco
HDMI
67/2014/
kiốt
ATLĐ
CTR
##chu
##bộ
Stefano
diplomati
Nani
Lance
##GA
pơ
##mét
GCC
##chất
xỉa
535
##,59
##ery
Marcel
vv
##tch
424
##Giám
flavonoid
vạc
Sergi
Fabinho
McTominay
Oblak
Jasmine
KLF
##,91
Zhou
Choang
6-2016
##-5-2018
##Ta
vứ
Speed
Hê
Pena
Hoo
CMS
BANK
403
##gột
##ore
1/2017.
nạng
net
##Shabaab
##Kẻ
CHF
##self
Bakr
Culture
Gorilla
Fumio
Harrison
EXO
##war
##rong
12-2
JD
##Men
Rey
Nikolai
now
11-2
Dali
##55.000
Nọ
ngọ
film
5,0
362
456
##nghệ
Ser
Collins
5.8
Xỉ
Thờ
##Lan
Prea
##Sơn
travel
Feyenoord
Voọc
Taiwan
community
Ababa
KTCN
Correa
Manager
VĐ
##iki
Sính
Hwan
##tte
##level
BE
10,4
karate
##iel
Tourist
hop
##-10-2017
##ĐL
down
LU
##KE
##.480
12-2015
##Ngọc
Mobi
Kom
quằn
infrastructure
Hopkins
MAMA
GNA
Cuội
dụi
enhance
##610
End
Truidense
##RP
Điệ
Action
hâu
##ABank
Mổ
##ìa
##ecirc
##-10-2015
ITE
Mul
##Malaysia
##Putin
peace
##Để
##FS
8-2017
##sít
Dinamo
Verratti
Yongbyon
Zambia
photoshop
serotonin
coupe
QLED
Rung
Pavel
14:00
Asset
Chài
##15.000
Serge
##online
##/2014/
14-1
Not
##lay
nhiệ
##BA
VX
##cam
Borisov
343
XP
##light
##-1972
Mino
close
##phi
##rop
Front
##link
##ock
##.380
##-4-2018
15-17
Community
SAGRI
Ounce
Girona
Blake
Malcom
LNA
##Xảy
CĐSP
MLS
Think
Maas
Gianni
TTN
Rocker
12,8
##BT
##II
4.3
14-16
CAR
Choice
Stop
ĐBVN
##ởi
Musa
Cham
##,48
Ce
links
##ima
##LT
0913
Leno
##khác
Share
##Germain
Ay
hênh
Vallecano
potential
Natuna
09:00
Disneyland
398
615
IHS
31/10/2018
##nen
##cker
focus
##jan
low
21-1
10,6%
Dìn
rọc
##năng
30/9/2018
Strong
quại
##kip
24-1
Mati
Niko
Ngó
CIC
Loạn
vani
##9,4
##nisi
Payne
##lớn
##osa
##har
Sampaoli
Shaqiri
UNHCR
curcumin
always
hattrick
##Nhưng
GĐKT
##ườm
Kwon
Thierry
te
##1,7%
Dorian
Bremen
##ole
##nhan
Lích
same
##-1969
Pốt
361
##istan
##nhấn
##lli
##cả
Ngoc
Diplomat
##oòng
Roja
Eder
30-50%
Yok
##uda
EF
##Pa
940
##qu
##sta
VSP
##sam
Johann
##phối
caffein
HG
Apache
Konashenkov
Nairobi
workshop
Pizza
Isner
Ontari
TSVM
##,98
010
NFC
chồm
##69%
Markets
11/2017.
THE
##õng
Kurz
Mig
From
2018/19
9-2016
##RS
trọi
##,58
diếm
6,1%
games
5.7
##òng
##/8/1945
##Mi
##/7/2011
##lina
##Ro
##BKHĐT
##tìm
##nhập
Human
FTC
Priyank
Salmonella
Vanuatu
iMessage
exhibition
major
visitors
Spirit
Test
22-11
Bogor
##hỗ
Learning
Biều
Halle
Ze
1/2013
Kham
098
##BB
##ook
##lis
##Arnold
##Vĩnh
Racing
Joyce
Mitchell
##times
Qaeda
Dutch
##-70
build
##lce
viêc
416
SMEs
ET
Mont
##rữ
Sur
##-8-2019
Hũ
8.5
Trư
12,2
Books
##-05
##ngay
Coast
##lie
25,5
CTD
##for
##game
##sal
##ovic
xổi
Champa
##đổi
Economist
Fonseca
flycam
NovaWorld
pound
Globe
PVPower
Telegram
Schwab
Joaquin
Sandra
Lượ
2-2019
##plus
Nao
Mạn
Xoa
1,000,000
##TOM
Niu
Lou
##Star
##3/63
53.000
27-12
Off
##.12.2018
2/2019.
##BNN
##/08/2016
##Đặc
##xem
##450
##Chúng
##Tahrir
Chairwoman
Chechnya
Lorenzana
Savannakhet
USGS
GrabFood
kilomet
Wright
Nâu
exports
##chen
##ali
Seme
VWS
Tuyê
Mae
SWI
8000
Hara
##hướng
##gồm
406
##eng
##nova
ABB
Poli
1:2
##1,2
BCT
Sta
##MU
26-1
009
##ucci
Fivimart
Haftar
Lovren
limousine
localities
Bacca
Sanaa
369
##ICO
9-2
Agrico
Aleksandr
##.950
LTS
Barry
##iano
30.000.000
demo
##-6-2019
Rahman
##mở
##,99
Stephani
452
max
side
##TGT
KM
end
HAI
##night
##ep
##ras
508
CNNT
Ping
gạn
6.3
bấc
17-12
government
##uốt
##AMG
##CB
Cadillac
Pullman
Claire
Honey
Triton
Fin
Alexe
silat
become
Op
Var
HKD
##folate
1,35
28,5
##HA
##lov
TCL
14,5%
##phong
Grey
##kit
##dro
CU
PTNN
##kai
##kha
##ob
577
##ub
lớ
8,1%
##.5%
397
Seri
13.500
Safe
Kolasinac
Bellerin
MSCI
giầu
Chapo
4487
ngấy
Desire
##Photos
##iga
##AL
##ugh
19.5
##xit
41.000
TĐT
##ạ
DTH
558
Đạn
14,2
ngọng
##ent
sea
##6,3
Milo
sales
Monde
1-2017
##PA
Brasil
Alcacer
BLTTDS
CREDIT
AIIB
Leyen
Arturo
KQXSMT
IDICO
honda
conference
400-500
Alps
01/01/2019
##FAM
##1,7
Dz
495
##Ka
4,1%
Hến
Chuồn
10,1
selen
Mur
##lton
##nford
##rit
##/1980
EMC
Tempor
Henri
##ullam
##facebook
844
Phanh
Ràng
##lip
Botswana
Coteccons
January
Kerber
Showbiz
Ngát
SGGPO
##thuỷ
##avi
Thiểm
##aziz
Zi
3,0
Súa
Ig
Ces
3-2016
XHH
pay
##TL
13,6%
Scan
37,5
CSM
538
1928
##cle
Lé
Magic
God
##Asia
Que
655
##,89
868
##zon
Bla
##rpt
##mAh
Sicily
Retina
WSJ
MediaTek
nearly
Ghani
Radar
##bold
Vpop
##luôn
##aka
##oz
##key
Lahm
thoai
423
##aga
Roche
bươm
29-1
Nin
##ểm
##CCI
Huffington
Brando
2500
##àng
##mark
Airport
##ommodo
vẻn
##650
799
##0+3
##-8-2018
##70.000
ABU
Has
1/7/2015
Kaka
##nix
##-48
##Abadi
##Hiệp
Peace
environment
06:30
Dublin
Morales
Sullivan
cookie
Gerald
Sharon
Ae
HACCP
Orion
Ivy
Richardson
TÂM
Raphael
Cahill
13,6
MBV
Kok
##KDTM
Sparta
nhởn
skin
31-12-201
10,3%
1/4/2019
1919
##ries
##rằng
##.460
604
##ệch
Khoán
IU
##bak
##GH
Cool
Reno
##Content
FI
Bolkiah
Roosevelt
tyXổ
Alabama
oliu
Chopra
Tyson
10/10/1954
Batman
Mou
Pacquiao
XZ
Rubella
Kẹo
Realme
##eus
1932
KGB
VAC
##ọng
##ảy
MUA
Vaness
LT
Bua
Khiêu
Brie
17-1
Lip
##đoàn
##rắc
9-2015
October
Motorrad
PetroVietnam
Lybia
Loỏng
nostru
Bolivar
Thẩn
POW
33-36
409
Arnold
13,7
Alejandr
##rum
đăm
VAS
Phậ
LĐBĐVN
##Dông
aliqu
Hèn
##olo
EL
Khuông
Are
Sốp
SCR
Zhong
Họng
##tive
13,4
##none
exerci
##thiết
Anadolu
Rotterdam
Wozniacki
County
SASCO
Cornell
music
quơ
7-2018
HBC
value
105.000
##ơn
Tàn
##-2001
##tơn
lẹt
##pho
##hwa
ghém
CSR
##EX
##lim
mic
FSA
##mô
Mining
GIS
##signed
##.990
uột
##dium
##,13
Yak
##hẩm
Venture
AIC
vượn
Pet
Andrzej
Clooney
Rajevac
Selecao
vietnamnet
Bobby
BCTC
Brothers
2008-2009
2018-2021
##Sở
Joint
Shield
Mitsui
332
đĩ
##hat
599
30/6/2017
68.000
Tele
31-1
Ural
12,4%
ASC
Pont
hơp
##Zor
IPP
ARM
5/2018.
quis
Leng
##rel
##DE
##bot
##/30
4-2016
Cher
##QT
##è
she
Yasu
Machine
Ive
anniversary
solid
Showroom
Sputniknews
Hudson
Screen
Anders
Hamid
5/2019.
nu
Nghẹ
15,2
##sie
Franck
##6,8
MHz
##73.000
##,09
##/1990
##dam
##berry
Ring
##iếc
3.4
455
##DXG
RE
##eck
##ff
sậ
Hotspur
fructose
Larson
Spicer
Fitness
FWD
SNSD
Natalia
fake
##.900.000
Stephane
chụ
##SK
Laser
##hang
##,14
##SH
xém
##zu
IMO
Parc
Jen
##KL
DPT
##ism
##5,000
##/01/2013
Fit
##ravis
polyp
##-12%
##gna
Mid
##9,8%
29-12
##food
##Syria
bĩ
Pharaoh
Aedes
Sewol
Borneo
Ivoire
Ranee
VDSC
##icente
TCCT
Circle
McMaster
2017-2021
##hy
Nới
Nhộn
Six
11.500
rích
7.2
Gustav
Look
1-2016
##ruồng
QPAN
##soft
##BF
##idun
##+200
12/2017.
Sepp
##IZE
CW
##case
568
phò
Khắ
Hờ
Riyad
##quân
Yoshihid
Shimbun
further
urban
Solomon
Phỏng
saxophone
Uttar
khương
Exchange
Leeds
Kepa
Kuin
SF
Cruiser
##oo
##Cần
Zenit
Valentin
SHS
##isa
561
Pool
##ink
7-0
##CCD
JT
571
##.360
##code
##.050
516
##.800
AIM
Turan
10,1%
##570
gio
##shu
##Mô
Phế
##wards
Simona
##-6-2017
436
##ọp
##vina
##Commerce
##Schmeichel
Kansas
Maddox
domestic
Pickford
pastel
Koulibaly
##ditions
YouTuber
Nghìn
##ghiệm
##sol
Philippin
##â
mợ
Sadda
##wal
Echo
##tas
446
DR
##ahn
##phương
Nung
Hyper
area
039.
TCC
##IN
##font
10/2011
bina
##/63
Tara
##.2011
Fish
Mướ
Hole
##med
##Israel
GII
Adventure
Aisyah
Bologna
Davao
Cortana
Industrial
opportunities
Quầy
LONG
Khaled
nhử
voan
Agency
Ailen
3-4-3
rỉnh
KPI
##itanium
Mass
Carbon
Gol
11/2018.
dă
green
##-02
ngoi
Dier
Joan
ARA
533
##ủng
##-11-2015
##yoshi
##:37
rờ
16-17
Phến
##hập
giụ
##fl
##-4-2017
Carnegie
Januzaj
maintain
Spencer
##EIGHT
comprehensive
Melinda
town
Leading
##GC
AWS
change
5-2019
1,15
668
##ILY
Aden
Sham
Bloom
##rah
1935
Kimmic
523
Este
1,05
Neill
nầm
##vel
Mount
##SF
##rage
thảng
Loch
##lab
##ÔNG
##ama
Boss
Sex
565
##tec
Ras
sụ
##ess
##rắm
Af
Bor
##phòng
##đặt
Hiroshi
Draxler
vnexpress
Dwayn
fields
trập
Valentino
NGHI
Vông
Swee
##6.500
##acker
##oud
Blu
ĐO
##ote
10,8%
##untory
TĐKT
##8,7%
oă
##uma
Just
##BH
##rt
##elen
##lly
5-2016
nhũn
Chernobyl
Gartner
Worldwide
Kagawa
NOXH
dớp
Keane
11:01
31/3/2019
Bohemian
Găng
Kẹ
Schulz
tỉđồng
##CMR
2013-2017
Jupp
##Car
##-1-2017
##illa
PCTHT
Operation
Rosa
9.0
Gallery
Lego
Chán
Gru
Sành
##phan
tược
6/2012
Pte
Gross
489
507
##ò
Os
Friends
##Indonesia
Chicharito
Mogadishu
Wikipedia
Zelenskiy
lympho
Benign
kiloton
Trầu
ĐÔNG
##xử
Verma
Xbox
Gụ
Kur
##ằn
chởm
Sé
##adi
925
##Mai
##sey
30/9/2019
Xôi
Col
##Jek
##hiệu
##dom
##bốt
1,78
HSC
Chuan
Gel
##las
Ever
Sẻ
##abiot
Player
SDG
IUCN
Maurizio
##-9-2019
Gạt
Consult
15:00
2010-2011
Yersin
##ên
Taw
Duke
##-55
MO
Cookie
Đĩ
load
13-15
ườ
1-1-2019
Polo
8-2016
win
rền
calorie
15/11/2018
474
##uý
##ava
ĐTN
tré
OAS
##ssi
##Su
##ack
##gas
9.7
Manbij
SantaFe
Sevastopol
WWDC
Wushu
industrial
Muỗi
Traveller
tiễu
eSports
##BNNPTNT
##ball
chường
##giê
Chibi
##exim
##7/7/2017
BCI
1-1,5
Viva
3/2012
4.6
TSKH
##,5%
##AMM
72.000
IDF
Baku
56.000
##225
LE
JA
##tổng
Luna
##oli
##77.000
present
##plex
Rada
Wend
Amand
Phò
##ngoại
##head
DNT
Cruyff
IRONMAN
Mattarella
Tennessee
VTVCab
Daegu
Ramadi
##club
KFC
GLC
4.8
Champs
ĐTV
63.000
Natali
Khiến
forward
1.150
741
##/1947
BPA
##TĐ
##nê
ADP
##toàn
RA
##des
##SMT
427
Rand
suit
Surabaya
VNACCS
again
Chavez
##ĐB
Zeman
##Dzeko
Păh
DÂN
Germany
##Đầu
IMG
300-500
##ree
##:45
##iko
Elvi
##,31
1931
##view
##ben
##sur
##tỷ
quality
VBA
mõ
11,7
chếch
xóa
##.840
Clo
DNV
##Na
##,76
##vers
##lat
Boxi
Giặ
##use
Kor
NTP
##ile
##nha
##ux
Oa
Gundogan
Hodgson
MEGA
TAQS
volume
Forever
Laporte
Monster
Agri
issues
Suýt
Shayk
##ij
lể
Bư
Mobil
7-2015
##Leste
KTĐT
##/1976
##mir
2014-2018
Ou
##-54
Paso
Stock
##cal
TUV
Nò
ez
##/2015/
face
Sua
CĐVN
mệ
##water
##hắc
##5,4
##-04
Montreu
Teerasil
future
malware
Raymond
information
Nhện
Janice
rắp
##30.000
Kitty
Wheel
##Nghệ
##triệu
##đặc
Cộp
liệm
Bernie
Kovac
##3,5
##MAX
ă
Sisi
##xác
##nhất
##ick
##pax
601
##-2002
7.800
##ín
##ble
Mats
##,46
7/2019.
##var
Evra
NI
oxi
414
mon
##rea
##KCN
##nik
NVS
##cio
##/11/2010
NLD
Race
Program
HNB
Louvre
denim
HongKong
Angry
ECMO
Rajoy
UEF
##.660
##úk
Nghèo
sậy
##5,9%
##Media
Koke
624
Nón
Porter
1,55
10,7%
##anya
Towers
14,6
##RE
Ap
car
##/1979
6.600
##,26
##SO
479
hom
IG
##ạn
DU
school
VTN
LO
thọc
890
##CTN
JPMorgan
Reynolds
update
Namibia
Pattaya
Valery
Panther
rữa
Building
##rường
##Philippines
##Ukraine
contribute
59/2015/
POR
Chông
Tango
##ừa
24-12
Holland
Wild
húp
That
Tím
##GF
##/1961
##huých
Tách
##esh
##sco
##3,7
9/2012
##fan
9,9%
##330
Quâ
##tia
Shef
Tass
Gor
381
##tur
Thù
phay
HDB
Aviation
Alexa
Thạ
Gul
German
Andrej
Capitol
Dimitrov
Huoai
Vettel
Yodyardthai
Fraser
Kirby
provincial
Bristol
Elena
Giorgio
NMNĐ
Viềng
Medicine
43/2014/
spam
789
Rolli
crom
Haider
Ker
Sáo
##asa
Char
Oan
Buzz
##uddin
CRV
##tác
hotel
##HP
Dale
Ace
##board
MSM
##ritz
439
##-1979
462
Yuan
Ike
Arts
0,75
Exxon
effective
McKinsey
VETC
Running
Fujitsu
title
Spears
Meyer
Rashid
Chosun
VFS
##SB
##Trail
Lens
19:00
chễ
IDG
1/1/2020
10:00
Wing
##743
Kỉ
6,0
##trẻ
+4
393
##Báo
330.000
##vy
po
Anbar
471
Mồng
Sabah
vờn
TTP
946
##.270
Clean
12,4
8/2018.
##led
Monta
BĐG
Mesa
##+6
law
Adayroi
Jacinda
Matthij
Warrior
Mecca
rắt
TRANG
Vbiz
##.560
Moo
Nishi
Kantar
##-2025
##Bà
Coastal
##fic
013
20.10
##9,3
622
2014-2017
Nưng
502
NY
##.999
violon
Geo
CAT
Xáng
472
Thayer
1.650
Rosen
learning
##uchi
##EA
768
##/1958
7,0
##oi
##hoặc
Bachelet
Calderon
ringgit
Kenneth
Suisse
Drew
Guerrero
motor
9000
Zagre
Windsor
2018-2022
VietnamNet
when
11/9/200
##Đảng
Rắc
##4,4
494
##TNMT
896
ngoá
##KN
##pra
Hao
##LS
PVT
tuế
Đôla
##7,4
##erry
Thia
712
##chế
##hủy
1/8/2019
use
GMD
Nôi
Cox
phầ
Vogt
##Emerick
Crawford
Heynckes
Children
Avi
##Châu
quắt
##viết
Sana
##bri
Zhi
##evo
477
Reed
attract
##rom
##lison
Vie
Raj
3/2017.
khà
Skin
Shen
##lot
Sami
##bản
Giáy
##REA
17,2
MG
PTC
##1,8
464
Cl
Brin
phơ
##,52
Rì
normal
Photoshop
TMDV
router
Prabang
hoè
ozone
Macao
##DR
13:00
Lẩu
Yeo
members
##!
##Thừa
##Luật
347
135.000
6.4
Vách
huô
Gam
CBU
ELN
##:08
hùa
ĐTXD
KTTĐ
nghét
UR
13,8
62.000
Easter
##69.000
##Tập
7.1
2028
kếch
##uro
Qi
9.1
##reza
##nar
##band
Kings
17.7
##added
441
Davidson
GA
##-07
Bentayga
CIENCO
Century
EgyptAir
Memphis
Odyssey
Spectre
Continental
Heavy
Affairs
Gieo
Pưh
Xinhua
UAZ
Dimitri
Oriental
Estate
##space
phenol
##.280
DB
##rim
Manh
28/02/201
Ts
##iro
##hr
0169
ITC
##erum
giặ
Kath
Pó
##spina
Cr
Cắm
##AR
11-2016
10/2010
Amir
Nhịn
Keylo
##-154
Damrey
Embassy
Shakespeare
Vajiralongkorn
dollar
Seasons
Jie
UBTV
0165
TTTV
ôliu
Natri
xuê
##Nhiều
##-11-2016
##thay
Yoshi
EM
COLOR
##phản
Stephens
want
##Cơ
Mượn
ACT
Kean
Franco
743
Sundar
Fest
ĐA
14,2%
##iv
##los
##,45
Hò
##-350
Ora
Ivanovic
##8,7
Oli
##aw
Bourdain
Huracan
TripAdvisor
AmCham
DSLR
Frontier
Orteg
Cancelo
Rafale
charter
ngái
thẩn
##sel
##IP
##VKSTC
Bennett
bụt
Infiniti
Vivian
Artist
##Linh
6,81%
466
her
23-12
11-14
Bour
##cos
##zzi
Sik
##-50.000
trằn
##imi
##zone
##00.000.000
407
##ộng
there
WM
Aki
Sotheby
19/5/189
Montella
Paulinho
Ruben
##coin
melatonin
Jackie
GDCD
Heard
Body
hydrat
Plông
528
Moussa
Wealth
Child
##/1965
374
float
##bạn
Duo
Baghdadi
16.5
##cer
130%
##cán
586
612
##/05/2015
17.5
##:59
##cung
##vis
chò
##rich
Brooks
448
##Le
ATF
##ire
##bro
##Ch
Kawi
##shop
ROA
##So
##2,3
Wook
cocain
KPMG
Language
Nebraska
Impero
Vinacafe
Werner
Lamela
##OP
Kbang
Seine
Ipad
xè
Guillerm
##asia
bĩnh
Nơ
##gue
Mụn
##1/8/2018
Mer
Formula
Hyuk
##nic
##tana
##Da
Ellen
Ivanov
13,2%
##Khu
##nữ
##/10/2010
HVG
tone
##GDCK
##.10.2018
Societ
choạc
##tho
bện
##erson
##5,5
Cal
Moca
SECC
Grigor
##9,8
issue
##BP
11,8
Micheal
Mignolet
Reddit
Hercules
Marouane
Yanmar
increasing
human
Linds
Nikola
##ượ
##eur
Kindle
##fin
toạc
##bps
##cảnh
##-9-2017
##ory
Boon
Rayo
##Orban
##ils
##von
##wo
0-5
##đảm
mươ
Hă
GTS
Vong
##nya
Anatoly
Confederation
Jorginho
Novichok
Sắn
particular
polyphenol
DIFC
cuả
Sanches
Moonlight
madrid
Lev
siro
token
##360
##ASXH
##/1950
##Võ
Trophy
##sho
##lao
51.000
##BĐV
##-62
QQ
543
Jian
Phillips
451
##.940
13-16
Homes
##ợn
##using
PAR
##ía
1,39
##-8%
##rkshire
##xo
##ret
447
701
Airline
##ogether
##õi
December
Rafinha
Vaccine
Simpson
Bosque
Corona
Elliot
Mundo
Vissai
Phăng
476
sitcom
Vư
Chém
##Chỉ
20-40
4-2015
ESA
18,7
bòn
Citizens
8/2012
##nal
##804
page
quách
state
13,9%
##/2/2013
463
Too
Kato
##AC
SXD
Lồ
##/04/2015
Inn
AES
4/2017.
Ghe
##.670
firm
Haye
Baltimore
EDGE
Schengen
Yatsenyuk
Ulsan
sticker
Passport
oresol
Insight
xyanua
Luộc
##ão
ghì
4.9
Vera
Jud
DD
bazan
##Bệnh
##NLĐ
##-140
Gon
##HĐH
##.382
##quản
Phông
##ă
##ash
Sher
14/14
Map
##dou
5.100
third
DH
##lac
NHG
##2013
##chuyên
15/10/2018
##:04
##Home
sủ
SAI
Jiang
438
còm
##0404
Noa
MST
special
Mak
Kita
Adulyadej
Edinburgh
Ethereum
Malmstrom
Sassuolo
Ucraina
Vodafone
Rodgers
Cilic
Middleton
Zheng
Platform
Jovic
ISIS
28/12/2018
9.5
454
##9,2
##-40%
Khuyế
380.000
501
Sweet
Mó
0168
##hop
##ys
##og
##tên
##:55
##phần
15,5%
##vu
Cụt
7-2019
Eto
13,2
##ible
hỏ
##riana
NGO
##ista
2/2013
2-2018
BGDĐT
##khó
##tag
COD
ĐHSP
##TKCN
11,4
2,34
##kim
Couture
CLIP
NAPAS
Nagasaki
Schumer
Akbar
ABBank
Eleven
Truong
PBoC
blazer
Viagra
##ration
Jammu
since
Bertrand
RD
Kirin
opXtra
##Nghĩa
##lãnh
Chén
##uza
trans
##.970
##wat
Most
TYT
##3.725
-4
##pay
2012-2016
20/3/2019
Rocket
NM
##iễu
##4.000
##Palais
##0-60%
Thuân
0511.36
##av
Wer
kcal
##/1963
Ruz
639
Timo
##768
Đuô
TPL
##-10.000
##.680
##gin
1.300.000
##hồi
Stein
Morris
AFD
2021-2026
Bixby
CITES
Connecticut
Primavera
Strasbourg
Private
Xuyền
iFan
350-900
Dalot
Robotics
Greenwood
Pulis
##vô
##ÂY
sồi
Prize
461
Nicola
##2,1
60-9
Cub
Chămpa
##rul
##775
Chonbu
nhúm
Add
Phơ
##uýt
0.5
##âng
1918
Trip
##Diogo
850.000
##,35
##iwa
recent
Thalassemia
Vinastas
Rolex
Resources
Fico
Daraa
##:9
##íp
Dome
##ũ
Analytics
five
Clinic
##vận
##Lễ
gold
##uan
Beat
Fisher
17,3
6.100
##KQ
Kido
15/12/2017
9/2011
Mona
turbo
##1,5
Usai
##6,6
##ike
##Gi
##BV
##front
war
Jacobs
75-90
518
##ej
##/1987
Age
Hossein
Oklahoma
Rodríguez
beauty
climate
penthouse
PayPal
Charoen
cortisol
Roadster
Kingdom
resources
05:00
Weekly
VietnamWorks
Adora
ExxonMobil
6.7
plasma
Meeting
##.390.000
mèn
slide
##MTTQ
Rowling
1922
1.280
DW
##Ghép
call
Taj
12,6%
Fri
bua
xép
##6.000
Mé
Solari
Keral
Bartomeu
Fenerbahce
Fethulla
Goethe
Mozilla
Update
Sandberg
remain
Navarro
Ironman
OGC
Acosta
Walton
Giầy
report
receive
Roh
##:09
phờ
Gap
Loay
##xảy
6.6
Phia
Karno
654
11,9%
miều
##Al
##sti
##-1998
Shape
If
0511
list
8.200
Chơ
##3+
426
Xông
Tur
##uru
nation
##ài
##xcơ
Tàm
##Care
##eon
##LĐNT
##kyo
PCCN
##/6/2011
Lèn
EVNGENCO
Professional
Sanofi
Sissoko
Yildirim
bluetooth
occasion
Volachith
Chay
sũng
hoc
Hyo
Mubarak
##LN
joint
##CX
15-30
##ụt
##ù
##gửi
Hornet
Et
Wanna
##-32
sky
469
connect
Khỏ
ôngNguyễn
##,67
805
Mòn
##TEC
##-12-2014
16,8
Fedor
1933
##evich
Nghèn
##.800.000
1.080
Pax
##hẩu
##mine
##-7-2017
##+100
17-18
80-100
##phụ
##4,6
talks
IIP
Indo
come
##ora
05/03/201
##bach
##nda
##-1970
1.450
486
##WD
##Symphony
LMLM
Westminster
Mozart
Gandhi
blouse
Rinh
Tulip
companies
agriculture
winner
Ac
##RT
Mission
##Walter
##Canada
##Đối
513
baking
Takashi
0166
10,9
##ith
Pheu
##ated
hold
649
##Nhiệt
##.060
##WA
##PDR
Lean
##isco
SAS
##9,5
##card
Hamad
536
##GO
9,0
##/4/2010
Cong
8.8
##.640
Phao
605
HB
tọ
15,7
ĐHĐ
##101
##4,3
##Sport
target
Udon
HF
##cách
AccorHotels
Nicklaus
Aurora
Sirisena
autoplay
rưởi
Lynch
Gót
Ilbo
14,8
Marino
10,9%
Liz
HMO
ITU
##bol
LD
hập
##RF
##year
808
Hít
UT
Kohl
##Nghị
33,5
##ế
Well
##pháp
DQC
##UNG
Teo
##90+2
##.765
484
Hor
##cia
##3,8
Thêu
919
##nor
58.000
442
BSA
13.5
##ill
Xẻ
##ffer
##Up
##thai
ESP
749
##ili
##3/2016/
##Phone
##bre
Fla
498
##.980
Licogi
Sumareh
Monreal
hydrogen
PVCFC
Zuma
GrabCar
Rapper
measures
Giăng
##ete
Hyori
GSP
Huyến
Dìu
##ido
TEU
##gal
Blog
##etti
422
##Ca
bỉnh
plastic
mĩm
11-13
Moriya
30-60
##bury
4.900
Izum
Dominica
##ân
##Bi
Rẻ
##5,3
##/190
Mira
##ồn
Nori
Firework
ER
hope
##họ
discuss
##xia
##lik
##-1000
Hard
KG
9/2019.
Hal
##,87
Incirlik
absolute
Chester
Olga
Rubio
Palmas
##LAND
Randy
ĐTLA
645
UFC
VATM
##inch
1,85
##nasea
##10.000
##ila
sin
755
Cote
SPF
428
##buri
##uncan
##ossack
##CF
SSC
Koch
##ĐP
Rhodes
##ense
##ome
##nel
Vita
EQ
16,6
##RA
15.8
##/3/2012
bỉu
487
Sp
Jade
Guendo
496
##ré
Ey
##ans
12/2016.
7.400
##.230
Vip
AirVisual
Besikta
Cagliari
baodautu
Atkinson
Umeda
Condens
ESOP
Staffa
Methanol
Sandy
Rebecca
chrome
Monitor
HHVN
Mò
##ral
Swiss
12/2011
Kris
dòm
##,53
space
##Ja
##Cục
Gác
##mal
##TCĐ
12.9
TAC
532
16,7
##das
567
##4,7
pre
our
Class
018
Mb
##Kết
1.200.000
gá
Pí
##economic
##circ
SGGP
Cheryshev
Kalimantan
Politico
Belgrade
Julen
Bibica
2005-2010
Bẫy
##.420
821
552
2011-2014
Alberta
##China
##VI
##BKHCN
28.8
sờn
Carol
629
Hwa
sub
15,1
0163
##/1985
5/2017.
##ago
Bas
xốt
##quá
##iên
Mis
super
##:29
592
2-2017
##HĐTP
##ưu
Quad
session
##:39
Lord
rate
Nư
667
cùn
Nhắn
AD
##5,8
lia
##transform
histamin
import
bìu
##3,6
ngồn
##rico
MPC
Apatít
Chatbot
HVNCLC
Mancini
Odebrecht
Palermo
Zircon
Zvezda
Gambia
CarPlay
Capella
Nadella
Drake
VCIS
FOB
19,2
MQ
##cảm
URL
Tien
cạc
##:06
Kos
Clipper
##nguyen
##mạnh
##chống
995
##.780
##ký
##duc
##dang
Mos
8.300
cộp
Russian
##Un
30.6
Sugi
##.580
Tsu
##-200.000
457
Nikon
Stephan
503
##Com
57.000
##1+
##owski
10/2016.
626
Arian
MWp
Rao
Fo
##.760
##,68
11/2012
##dine
1,45
Maute
##very
##dhoven
0710.3.733.26
López
Puyol
Rakhine
Snoop
salbutamol
Sheeran
Wagner
Hertha
chatbot
Bailey
Tuế
Talking
##8/2013/
Connor
Williamson
8.7
Suites
10-30%
trâm
Burke
##-120
##1954
29/10/2018
Phàm
9,75
150-200
##iệp
kẻng
16,2
##729
##RR
##ture
Giò
Rebel
DPR
##bek
Thò
6/2017.
Wear
Chắ
##.330
##.410
##hae
Step
Helio
##.790
Grad
11,9
AND
091
514
NVH
##típ
LOTTE
Wind
Cy
HANIFF
Information
importance
VietABank
##assage
Napoleon
Server
20.11
Phuong
Brain
CTC
##orn
plus
tuốc
##class
##chương
##Cụ
Sedon
VNN
SB
ON
deep
##ogo
Tetra
Maison
##bet
##ớ
TCS
635
##TNTN
##biz
RED
##TZ
##/13
##KI
##ded
##Be
##,17
Bah
QC
##giới
##map
Clasico
Valladolid
congluan
largest
CHÂU
workers
NSNA
upper
Blood
VV
hover
500-600
xoã
tuấn
Kiểng
Mote
McG
##.375
##oma
Act
##Lenin
lét
##IM
Chiron
price
drama
Puma
##mont
UHD
11/2011
##CDI
MAS
Mắm
##lum
rịn
16,5%
##:38
##nie
25.6
8/2011
##sz
##gawa
Poly
ĐÁ
Bir
10/2019.
Deb
##JC
##IRNA
0903
EA
##thủ
Matsu
##.880
hủi
##.620
648
PAN
##ori
Earnest
Fiditour
Inverter
Missosology
Selangor
Voucher
PBOC
granite
11.9
SYM
Courtney
Stress
35-36
473
Lars
##:47
Sác
7/2016.
7/2012
##Hope
##.240
##:56
##8/2016/
##đen
##dis
TNXH
xoạc
##col
453
đạ
Trôi
lất
Paper
Chon
##nations
##Hạ
20.7
##tốt
Troy
##zz
##5/2013/
Mah
Medi
##share
##anto
seek
##róc
Lử
10/10/2019
##8,3
##cor
##escu
444
XNC
Frances
Grobest
Iwobi
LILAMA
Nvidia
Oxlade
Stuart
TikTok
policy
Safety
After
Heiko
Gaulle
07:30
Three
KIDO
521
Kana
Dilma
tourists
cut
##vị
##press
1934
##Mexico
ALS
##Sự
##mmar
##lose
Rovers
xị
##pper
##Đoàn
39,5
##nguyên
cano
Gur
dìa
7.300
##ilon
Coin
##.755
NPT
look
MTM
Fine
Dot
Who
trùn
22.5
##Pop
##stro
ATS
QLD
##:20
Berlusconi
Cuadrado
Guantanamo
Hampshire
Jupiter
Kentucky
Queiroz
Rhapsody
Supachok
Vimefulland
Vinaxuk
Oprah
demand
Keisuke
BVNTD
QPPL
Lippi
Dynamic
##NE
VOC
Ness
Imperial
12.5
Pê
Prevent
##Vân
2/2018.
JCS
Ami
##.370
canô
##-5%
thây
padding
Cate
9/2017.
##.390
15,6%
Magazine
Dy
TNV
Parma
##cá
##XY
##bert
##môi
##1,1
##ặn
##hose
8.4
##corp
##hel
Djibouti
Dokdo
Osasuna
Bulava
Leisure
Audre
Đrắk
nghếch
##Givenchy
eSIM
Genesis
Gimenez
ThaiBev
##ool
COPD
poly
Pew
##list
CUP
Thở
##,51
##rm
##nit
Ngâu
##.960
thốc
##Chamberlain
Birds
##Sha
9,25
Hib
##oto
emoji
##home
1926
Suite
Ol
##fit
##.430
64.000
GTCL
vọ
Petra
Toro
##3,9
##aly
Ting
UBS
Main
CE
##/1977
##mbo
7.3
##Air
Aso
##3.500
##GR
##tính
Đãng
Sakai
665
bold
8/2017.
##hiều
##sse
##.000-5.000
##bor
Johns
Accor
15,8
##send
Doctor
CĐCTVN
Naruhito
centimet
rupiah
TDDC
Vinataba
Rennes
Deluxe
Malawi
Ag
Battle
Thitipan
SEC
ghè
khăm
Linked
lactose
KHOA
##nội
544
Sến
Tuan
cave
##50.000
nệ
Labs
##total
##carotene
Đao
Peak
Khố
Ari
BOO
BD
10.3
975
trui
Mama
Aus
##eau
##,56
Jair
Xì
Pyi
deal
Cruze
Jeon
0-6
##low
11/2016.
Rum
Clarke
kit
Luca
##Kat
Ngưng
Asen
8-2014
Mie
GW
CG
IOS
##ston
partner
Orchestra
ninja
rơmoóc
Lucky
##.290
MFN
Svay
Austria
Atlat
partners
remix
##egacy
Bastia
##mario
SEK
##35.000
Lallan
##ạch
6.9
##FG
service
Penn
1,68
CIS
Mick
##mobile
##Ngay
##bur
##cat
602
13,4%
2017-2019
##ECOM
##1/2013/
Boro
Gong
Roa
##.630
banner
##2.500
triglyceride
CQ
Allan
Bro
There
Court
Rem
10.5
1.850
##khoa
##gặp
##ính
MIK
invest
consider
##usa
##lit
Krasnodar
Outlook
trillion
Wellington
##xtrây
placement
Biscom
VIAC
diezel
Journey
##bis
Astra
political
Mainz
27/02/201
Sato
André
12,1
provide
1901
5.3
##hèn
UI
##PCCN
CLC
9/2016.
Bok
##muốn
##bia
1924
##.150
dề
20-50
76.000
Mãnh
Gene
Aziz
Sú
17,8
VM
##/8/2011
CAS
31,5
network
momen
Edit
Prak
##IV
Fami
##777
##leen
##:19
Facebooker
483
##/1978
LN
##azorla
Limousine
promoting
Lending
transport
ar
MSME
Darwin
Apati
7.8
##nếu
VSC
OTC
Mind
##ovsky
##OIE
7.9
##bai
##vet
##.9.2018
##LB
969
Chef
xệch
##2018
Keng
7.600
##AB
##-46
##som
MVA
563
EMA
Sọn
21,3
##.340
0,01
120%
##iza
1,73
Ying
Kệ
##mb
giòi
Kubo
##aro
14.5
12.7
Adisa
què
##vong
gí
Buffet
16.7
Cincinnati
McCarthy
Spotlight
methadone
Taobao
Renato
Coleman
Sakura
Trippi
Fra
Kĩ
ngoe
##nafort
2013-2020
Cơtu
##shing
2,25
Fatah
IVF
##.6.2019
Malho
Arje
NP
1/16
Leonid
File
##eco
##PN
##Viện
##TCC
Hand
##/1974
##eschi
491
290.000
527
##De
30-35
1/1/2014
Vital
##2/2014/
30-4-197
Alma
Cali
##/1966
mode
Xé
Chiêng
Madam
##mex
##Iker
##/1962
##illy
Tạc
Nhấ
##LTT
must
##PD
Poor
Moe
##ngành
Dogg
Hook
##Henrikh
Guang
Bermuda
Cleveland
Mathieu
Scudetto
Hoffman
Romney
flashmob
Robbie
SLBM
TWICE
xẹt
niềng
Chambers
NINH
17:00
Mercosur
PSA
Petrovic
Darre
##thấy
##Trên
##Factor
##Vụ
Dmitri
##.090
##TDM
##mong
##suk
##dùng
Indra
Hur
Flora
mark
29/2
##.170
##bat
14.6
lèn
Gou
##tsu
ươi
##dd
##.1.2019
##watch
MCC
Rein
##/21
Kill
Pap
ATC
##mức
##standing
Saga
BBT
719
Onodera
Symantec
Movitel
CSND
Guyana
Gregory
Phelps
##:58
Bấ
NTLS
##hết
Vitaly
ter
Canel
Kơ
##mol
01/01/201
Billy
##cheon
##Liệt
##Sức
ONE
##vùng
##/3/2011
1910
##hạ
78.000
822
center
Gay
818
##DD
##cs
##VSA
15,4%
613
##nằm
Rad
##phon
522
##jar
PY
Gin
Hẹ
##esley
##uga
##:07
##oy
Klein
##nơi
Sì
##vas
##ket
##athan
MSR
Mean
15,3
Beethoven
Havard
Sihanoukville
annual
Swan
GFS
##nhanh
Kampong
Sasha
night
562
Đin
Studios
Dom
Nutrition
##ors
572
voice
##giữ
Alt
7/2017.
##2,4
##Mekong
##biết
526
Kry
UPS
KTV
##test
GLS
##chuk
##oun
985
##ỉnh
NSC
1,12
##pines
##sana
##XX
##4/2013/
20,8
Chea
##via
##ác
15.7
459
767
JS
##Escape
##.870
769
10.10
9.200
##ator
dùm
688
Contact
##Adriana
Beirut
Raytheon
Melissa
Karatedo
Valls
bằm
tẹ
Sei
Performance
Sto
##hl
Theodore
##Ga
Info
Beck
Federic
36,5
Kee
##Bashir
##ates
##vòng
##Phát
##Đỗ
Tau
Lưỡ
18.7
##Nhi
sõ
##8,4
đom
Ito
##-20.000
##úc
8.9
##Yve
TNS
Plei
iod
10.4
Malik
Want
Yar
##mus
##nex
##9,6
Bri
young
542
##ổng
Gui
UBKTT
##ple
2/2017.
##4,2
##1946
Ibaraki
Khartoum
Middlesbrough
Orleans
Wallonie
Dropbox
Gyeonggi
Armani
Zayed
Cooperation
Goetze
Kidman
gộc
Boney
Metropolitano
Double
ASSA
FT
0,15%
##cin
##oro
##ence
elo
##aceae
##Jo
Chày
Station
Sok
##minh
Tian
##Banking
ngâu
Stark
##trực
Dawn
##Marc
##WS
##Eye
##.595
##,88
-15
##SA
Singer
Ek
FX
franc
587
806
##hanoi
nghè
7.700
##run
67.000
##BOT
Toy
##.520
LLC
17,6
4/2012
9.9
12/2015.
##.295
14,4
478
##MN
16,7%
Moong
Thien
##2017
##SL
Seko
Pure
##uzi
##ethamphetamine
12.6
##trả
Beyoncé
Guiness
Sorento
roadshow
Rosberg
Sudico
Lonely
Intelligence
around
Alphanam
leading
Speak
##fran
Alaba
Transformers
19/8/1945
Alfons
35,5
Winston
Vasco
Wonsan
##Kế
1880
bìm
##Cô
##khởi
##nguồn
2,75
nhiềungười
VCI
cánhân
views
18,9
519
17,7
553
BĐN
1,49
17,4
537
##sion
825
Lak
##aco
ươn
##MM
Imra
11.7
556
29,5
32,5
lock
Hydro
ME
Samir
Cesar
Lambert
Sena
Yoshid
##0.00
Lufthansa
Díaz
VCCorp
PTDTBT
addition
hêrôin
judo
Katê
Malibu
Ruồi
điếng
Gõ
ITF
##:44
##ỏ
Jeep
Munir
LDG
sapphire
direct
MoU
GTC
Rambo
##kas
##:13
##/100.000
##-03
##ono
##Feed
##6,4
21,6
.....
ED
alpha
##BTP
Lặn
##Link
##YD
j
root
##und
66.000
12/2019
đặng
Kla
##rian
849
beat
##are
##ểu
##fr
##Ph
chệ
##ropical
21,4
##.225
##vit
##BER
Mom
Mui
WAG
Kinzhal
Luzhniki
Sneijder
VKFTA
Eintrac
Tyler
DATC
Edouard
CHUNG
ABO
Giâ
Qué
Yamaguchi
GIZ
Sally
##law
Adnan
Lấn
Mauriti
##/1981
##nhiệm
introduce
##room
loẹt
##Bo
2018/2019
Sheen
Fields
dậu
contribution
1440
##lực
##pod
3/2011
548
##Club
1.550
Memor
2-3%
##Qua
##Park
nhép
Lác
##UM
##.080
12.3
IMC
22,7
##bb
8.400
Yazidi
VTF
12-2014
##Fa
míttin
##allo
Amin
955
##tak
Atom
##eal
##mmer
##,84
Ryu
Intime
ché
PGD
Chò
Còi
Hmeimim
Laguna
Lollipop
JBI
VCCA
Booker
Highlands
Chievo
##Dương
467
utd
Buy
##ization
TDC
nhặ
35-40
Nutri
##zhi
##mic
Dia
Rosie
28.6
##.200.000
##HKVN
Diệt
13,1
704
dật
CCTP
##Ngô
##rent
##inTech
Jazeera
##Dầu
Karlov
##80.000
VSV
##cb
627
Ngụ
PRO
27.6
25.7
Lost
##1/12/2018
boa
chõ
699
##.140
##taro
Sands
startups
##èm
##.191
plant
PLC
11-16
##365
AUN
pi
Dal
Curcumin
Kathryn
Signature
Generation
Lú
VPLS
Logan
Ratings
##iêng
Tik
Pil
Súc
Hứ
Búng
492
##kế
But
##agerfeld
##rna
Yam
Lynh
Rudd
##OLO
rim
Henrique
Res
touch
##chat
Bụng
##bình
Keys
##bỏ
##inco
1300
GSM
##Share
##1.500
##chips
8.800
##villa
Prawi
##3,3
Seed
##nga
vanh
Gand
##tile
11,7%
##quin
##apa
Kala
26.7
MTP
health
bẵ
Moha
##doo
##rây
##ollaboration
Alcantara
Gibson
Larijani
Rasmussen
Cayenne
samsung
PGBank
Caspian
Alliance
Phời
ketamine
Babis
##yuki
chẹt
Vnukov
CSKH
Ramon
Kaia
socio
Căm
IOM
proti
Mk
##Cùng
##anna
115.000
16,8%
##thứ
Gisel
##rial
Bleu
##.720
##.180
##.383
##5,7%
##0.600
1,17
##tien
Maggi
##sberg
##SD
##gun
##andi
##kova
KTTN
735
##Cl
583
##.985
Darya
TCD
986
Duc
nail
12.4
follow
1908
##NB
##:34
##7/2013/
Granit
Soft
Aeroflot
Beijing
Strategy
Thibaut
photpho
Schultz
GPBank
rĩ
hỡi
NLG
Genco
Viking
truồng
Selfie
detox
Gavin
609
482
12:00
tich
Tẻh
Sụ
Vega
##:43
Dươ
VietBank
##àn
899
##Hz
##HIO
##:40
##Myanmar
2027
0979
Reid
Koo
Trent
449
Glenn
CHU
Toa
917
ap
Lamar
##uỷ
110%
##uba
21,2
443
carotene
Cer
##used
KIS
531
##5,7
##sso
##Lo
##.820
##LLĐ
BCA
iv
Suez
Gôn
##/08/2014
##odium
Lề
##Lago
15.6
Image
Alexandri
14,9
Yin
GHPG
##bong
trờ
##BLACKPINK
Besra
Celadon
Mississippi
NSUT
Sussex
vacxin
Rogozin
PressTV
Tristan
quẹo
Somyot
Depot
MRC
Curtis
Agung
Lộn
Britain
Rã
##oko
Păng
##QLĐT
569
MCAS
##:22
Gấp
diếc
Kayson
##nâng
##OC
loe
ite
neon
##đêm
Paula
xuấthiện
##Kinh
BVU
Sạc
Coop
paraben
##7,8
##6/2016/
##oui
phthalate
623
##.160
##mit
756
3-2014
Rụ
##PM
Gore
##ender
##-101
576
10-13
##lls
Bần
Hack
##helan
Sugar
##-100.000
1911
##4,1
##BE
##90,000
##:36
Gami
##amar
Cản
OC
Adelaide
Montessori
Veyron
sandwich
Gwangju
Pandora
upload
##KGVX
zona
PowerPoint
Samantha
Reeve
VDC
Bernd
Nhuần
VÂN
##mất
forum
BPhone
Coman
18:00
BGH
Pur
##LH
Sarmat
THPTQG
Chuâ
1.750
Oz
##chị
##opoulo
##.688
Sấm
Tee
##.490
Lướ
6-2014
##spor
23.200
##.470
##.7.2019
Phai
786
##Davidson
##Giải
##Phương
##đẩy
SII
Chấu
21/6/19
GPP
Flower
##lang
##aca
##.1.2018
vạng
##xay
Banks
Fab
Southwest
Dairy
Monic
##8/2018/
Biti
Edwards
##had
##raj
9.2
TF
7.6
authorit
UH
##get
factor
dá
PAK
Pear
##Emre
way
Vế
Affleck
MOSWC
USMCA
Vyacheslav
pencak
Heathrow
Palawan
Fagan
Petronas
3-5-2
Flight
20.9
Hansen
CNGD
ComBe
##:54
##ỡi
##/1948
##giai
14.500
Liang
Lây
Capitale
093
Phết
Ursul
##ullah
Juliet
PSM
##oid
FN
##Thế
##phân
##quý
##Quyết
##based
##Thani
##sted
##.335
Doug
Gom
##teen
Ple
##Như
TSN
Suri
Rik
1/10/2018
##-003
##40.000
##Ng
661
##.905
CBP
maxi
1890
637
##.675
##sburg
Lac
##ÂN
##bry
Rodri
##:05
##odi
-7
##.210
##dii
phátxít
meo
TRD
##-1.
##FE
Anderlech
Ashraf
Lounge
Merseyside
Nemtsov
SKĐS
mutual
ĐDSH
Policy
ALMA
Bogota
Nagano
Rudy
Canyon
KTGS
Beverl
Spice
Toby
Petroland
FaceTime
##/1957
Calvin
Filipe
506
##saki
Click
589
Psy
##ikud
##TBXH
ppm
Nhơ
##Quy
##rai
##dorf
##kul
nitrit
Sharm
Ngờ
##.235
##.442
##iốt
##9.500
GLA
Sul
Raja
30/4/2019
baby
NGÔ
672
31.7
##ồm
043
Reporter
10.7
##awson
##.300
Jam
481
Kas
Josep
##-49
745
Boo
90+1
##eman
hác
##act
##60.000
CHO
Pad
##mặt
##kiot
Brook
##.365
Das
##18.000
##.222
Makassar
ministrie
##septic
Newsweek
##McConnell
Gỏi
Turner
##IL
cities
641
turbine
##5,2
AKP
2010-2020
##anaka
##rogba
1,26
0,06%
Device
Chromebook
serve
##Nội
Ré
khuây
##edo
Andrews
019
##rr
##.555
##kỳ
715
Ngoi
Sem
681
Gre
Tina
##/1982
IDA
serie
74.000
##.445
5/2012
FIA
##.433
Bơm
##129
##bên
673
##rand
Nhó
##lak
##inter
##huy
##wit
##kes
Mateo
##480
Str
0904
420.000
Novo
Phra
##esco
##pot
Berger
27.2
##5-30%
##ultural
##sov
##Jubeir
Bazaar
Flickr
Frozen
Mestalla
Mumuso
CapitaLand
Kieran
Normandy
Regent
Gabon
HSD
dello
##.220
Enzo
GDMN
##sor
##policies
Wings
31/7/2019
##TPHCM
IDP
Kôn
18,8
707
Math
200.000.000
##uch
##:17
41,5
8/2019.
Salon
##trị
##Trương
##wu
##iếng
##Xe
date
##llmer
2/2012
9.800
VST
##guchi
Moro
Râ
1921
8.600
7/2018.
##Homes
##4/2016/
546
Opel
##vơ
18,2
##azi
988
pu
15,7%
##ake
Dev
##bàn
1923
421
##bs
Sal
program
7-2014
xuề
23.3
922
25.9
##aracetamol
Gothic
Hannover
Puangchan
Champasak
Lancaster
BCSĐ
Shopping
Hanwha
UBCK
Montana
FIT
Maxwell
VIMS
Countdown
Nghiễn
Penny
ABBA
Temple
##11-2017
Zo
Tex
##-43
##tl
##awa
Highlight
Suso
##porn
Charge
3/2016.
614
##kho
##103
fashion
valy
##.570
Tarran
##-800
##6.300
Mala
Peterburg
##ộp
Challenger
15,1%
##đáp
##kWh
Fall
Dj
##otte
30.9
Pla
##amine
Lines
1,27
##.600
##NA
Mother
##Đó
fa
##otgirl
##sea
##gô
Torrei
##pet
##32.000
898
##insky
##mun
##VA
Architect
Cắn
Defence
TOEIC
Midtown
Alicia
Branson
##EVNHCMC
Angelet
Waverl
Ruiz
30/4-1/5
kwh
##8,8
618
Masia
20:00
##rex
##ày
##741
ASW
tổchức
capo
##ú
mart
##Bính
Mora
NHS
17-19
FPTS
Lew
002
Yao
Dick
##.510
##virus
##hoá
Kung
Sưa
##mash
554
Daiki
Wien
Khinh
16,3
chẽm
Mitt
Ning
ace
pass
##post
Javi
Tok
##.750.000
SVC
##:53
##ENCO
xươ
##:02
nicotin
Buckingham
Pentaxim
Roscosmos
destination
lb
Flashmob
Hubble
calci
Theeratho
Gameiro
Greenwich
Sheryl
Creative
Bollywood
Trident
##yatt
0983
VASCO
Empoli
DOHC
carotenoid
652
Dynamics
sarin
##ôn
##9/2013/
ACBS
##:27
Mus
Lindse
Board
TEDI
Zoo
##arrington
##113
19.7
8.6
096
ensure
##tum
Jake
##Bảo
##Mbps
##learning
##Lý
685
Ether
##Thường
659
Vỉ
Faye
##Thứ
36-39
##xanh
CSI
603
Pari
##strom
Noh
8-2019
CON
point
27.7
##EM
##ahul
Lẹ
##ines
##.305
VPN
##chin
##8/2017/
4.000.000
Gy
2.10
889
see
Kasim
##sơ
Elysee
Metropolitan
multi
50-80
Anonymous
Catriona
Dabaco
Ernst
northern
KaiYang
Takeshima
21.5
480.000
11.1
Small
##nz
still
Nạp
01/01/2017
Natural
##00-800
##.260
##aria
current
11,1
Haute
10-30
879
histamine
##.130
945
Bid
3-5%
being
Cardi
##:32
30/9/2017
##/1/2012
12.0
##qa
524
Pit
Meta
31.12.201
713
549
##vir
##gic
Direct
##130
FL
##25.000
##RC
##Chuồng
##lled
Arc
MBC
22.7
Bran
##líp
phướn
10:3
Fresh
Trươi
15,9
11/2015.
Dua
trip
##14.000
Bridgeston
khấ
9.4
agreement
##inode
##wall
##rám
Paco
Arkansas
Second
Amazing
Lennon
Venue
Hubert
volley
Mercury
HĐBT
patin
Computer
##.286
Cream
Gra
Sahel
SINH
16:00
Pờ
AWD
FS
shoot
Production
QLĐB
Haiyang
##Nhuộm
Takeshi
##alaha
##tim
##ĐĐT
##ico
CAC
ĐHN
LV
Belle
##6,9
20,7
PGA
##while
##rubella
##Oil
Tươ
##OOC
##dh
nguyen
Aide
##oda
##tử
14,3
Nôn
Bud
Tở
##AV
##zema
oxit
##/1964
##ICM
Phin
##rem
##odo
##uen
##hab
##eer
hand
##Tổ
rốc
##đông
MIC
30/09/201
Rah
Donna
12.1
AMA
##-1-2015
VS
##rio
##bé
765
máo
674
##alytics
tút
##mình
##vic
inter
752
##rovincial
ASOCIO
Azarenka
Caballero
Chrystia
Kovrig
Kwakwa
Pikachu
Pittsburgh
Winfrey
capacity
Guitar
Javelin
Lizzie
YouMe
agricultural
Té
##0.100
##1.600
##86885
##7,2
##TO
##TR
Bionic
Akar
markets
Zan
Bora
Penang
Islam
##4.600
##36.000
Kiết
twitter
788
##FTA
pick
bank
Weiss
##laodong
##yeong
1.270
##5/2016/
Gado
##dé
Kuro
23.4
Mặn
28/03/201
Choo
##wara
##2012
Access
Binal
19,9
##lex
Atlanti
##nis
##WP
CBQL
##Cà
##2000
Tuô
ADC
090
Cab
##/1930
##tối
NGK
4/2016.
trác
Kolkata
Muguruza
VinUni
pơmu
company
Truồi
Nichols
OneDrive
Persian
LÂM
MBBank
BIG
IF
##.39
Lombo
26/12/2018
Papa
Biar
##riya
0164
Persi
##5.500
farm
##đấu
##ượt
##5,1
907
##cke
Pal
##HĐQT
##.110
13,9
Tours
CPC
##1/2018/
##eth
19,8
##skins
30/11/2017
ka
##băng
##.010
46/2016
669
##.725
Founder
##-53
42,5
GH
Tier
RF
GTB
991
Chuyê
##-000
##.310
Olympics
##tormtrooper
Adrien
Bouteflika
Rajamangala
Utrecht
Wolverhampton
avlVar
Barkley
Jenkins
Agoda
Again
Josephine
Kiwi
Herbert
##zin
Delfin
Barclays
Gael
##rượt
đẩu
ANCT
bring
CSTT
0,18%
Chút
Geneve
defence
EXPO
liếp
616
chét
##5/12/2018
Cuốc
965
Metal
20,9
Princess
GEM
IMP
##.400
##zek
Đờ
kip
##/1984
JF
Brady
Sủi
Event
turn
##abad
##.825
1,29
##plo
##gắn
##xtan
1/2011
1.435
2032
14/08/2019
30/5/2019
##Cao
##Mac
##CNTT
7/2011
18,5%
##hường
517
Darro
Bùn
##xml
Dơ
PCB
##.888
##atrice
##9/2016/
##11.000
MIA
##CNN
Jare
##AY
##nas
##latin
##8667
thoá
##TG
Av
17,0
Thein
##rab
Karolin
suggest
##cino
Frankl
714
##Roberts
##2/2017/
##signing
##.822
4/2011
##work
##:16
628
Lôn
Pong
Ant
##eed
Gepard
Lokomotiv
Competition
successful
Cathay
CHND
Axel
##Temasek
##enta
Lemar
Dash
Lới
Thunder
Galle
##-61
Palmer
##tle
##St
18.5
##-65
ML
Điên
Thuô
Lat
11.4
ngoạ
##kins
695
##VGB
Paint
##6,2
rice
nhễ
6/2016.
##chạy
16.8
Mas
##inski
##Hưng
##Khen
bứ
SeA
TBD
22,6
##AA
##mê
DTNT
##YP
Bèo
Strip
##:25
Xiang
801
Urus
##idis
kiế
##5.000.000
20/02/201
##uel
6.12
959
##NL
##550
##gian
##gie
##-1980
17.2
Lex
##rious
Lave
1,76
30,5
594
triclo
Delph
Somali
1280
Brennan
Abramovich
Davutoglu
Johannesburg
Lekima
Scolari
Thornton
remake
11:30
Monchengladbach
formaldehyde
Dantri
Conference
Princeton
large
Mitch
Đuổi
Klum
NBA
1,08
Digi
Nghịđịnh
Milano
NLMT
Lìn
21/6/2019
843
##.256
cost
##Power
##Facebook
##Bùi
18,6
##vấn
##bác
1,13
SI
##enabled
22.2
##Real
##.792
13.9
##ouf
##lyn
BTh
16,9
FK
##eres
##dad
Bose
lứ
Hors
##huyễn
Halo
##.530
557
##45.000
##.394
Isla
control
##ffe
##sik
22000
##nox
Nươ
26.6
676
##lad
##wer
3/2/19
##zza
Foot
Window
Leonard
##hit
Pier
Algier
Blaugran
Chocolate
Churchill
Oktoberfest
shock
NOAA
Podul
Jaish
IFRS
HDPE
8,0
##uf
Donal
167/2013/
HE
VPĐKĐĐ
Dồi
Martino
nhẹm
GC
Trớ
Nuti
##8/7/2019
##.11
Sid
1/3/2019
Bannon
##.378
13,1%
##bởi
Wo
##abe
Qing
621
12-16
Reg
##iso
##Vinh
Hilar
9.8
##mas
Klim
madu
##allah
4,0
11-2014
Menu
##.195
19.9
Nuô
Flo
BHS
989
26/02/201
##dung
##rius
##Tam
##,69
trớn
TTS
##ord
##AK
##4.500
##ựng
1,02
23.7
Rug
##Ju
Od
vol
##jima
Bunmathan
Chaplin
Gerber
Lovato
Mercure
iParking
salmonella
Broadway
##uta
protection
1/2.000
thó
##lấy
2016-2025
50-50
493
##.533
Savico
582
EFTA
##1/2012/
##dés
Cell
##tter
Lina
Tx
Doo
##-002
10-2014
CBR
Sue
##Được
Change
##vil
Gulf
Tram
##dành
Oo
Khốn
##wear
sun
0,15
Phèn
##/1971
18,4
1.150.000
##sip
##Ru
29/03/201
Pick
Hasan
Hyung
##-44
Asiana
##chúng
27-28
Yes
Lade
##đan
ĐD
##/1986
##UP
##-001
##ML
Guard
Moran
1/7/2013
amino
fund
##-2030
905
##.930
##rick
34.500
Pig
##120
Evo
##ALL
30.7
##.666
##BM
##cas
##46/2018/
Excellence
Kissinger
counterpart
gallon
platform
Annabelle
Myint
Salvini
Friedman
Alipay
Hanks
##.148
Lassen
DUNG
dõ
Ricky
##bd
##rekking
##.611
GMO
1.260
13.0
MY
551
Tamil
20,4
##ough
##/2019)
Vù
1.1.2018
##.572
chau
Kel
653
Thames
Fight
Chọ
1914
##Còn
8.2
##Deli
##hiểu
##rowing
GROUP
##5.200
##.915
2016-2019
##Giá
Oreo
##:35
Zeta
js
##Nhân
case
Hyon
Boca
Pulga
938
##976
##DH
##ical
##oot
vể
##-40.000
Ariel
BĐVH
##6/2017/
19.8
Naka
22.6
Khoát
##iguez
Chamaléa
Eurasia
Kvitova
Wickremesinghe
Kaluga
MIKGroup
Koryo
macOS
polyester
Evening
NNCĐD
Reading
framework
##anu
Nest
Junsu
mentor
Satoshi
30.8
634
Lán
Reports
##/1983
mcg
Sót
Combo
lẹm
3517
2011-2017
STDA
21.7
Hamza
##khá
##iss
rúm
##erman
15.000.000
##lúc
Mille
94.000
Zei
785
885
##1965
##GDTX
##tov
1270
20,5%
##9.900
24.6
Vược
##DX
##ges
caroten
##EIU
Bat
##đủ
834
VG
Lyf
##EPL
##:51
Canton
1,77
##:49
##nto
##tian
14,1
638
##chester
vam
##HLV
LUX
##/05/2014
Earl
##els
##sim
##phat
##-7-2015
##1,3
##889
8,75
20,6
Burber
##awi
##.040
Gilbert
Wolfgan
##February
Augsburg
EcoBoost
Liechtenstein
McCartney
Orchard
aerobic
Jabhat
Reunion
fashionista
glucid
FOMC
legal
21.6
guộc
XWB
CNOOC
Daddy
đụn
nẵng
0,09%
29/3/2019
Xảo
##/50
air
##petro
##ghen
1/2016.
##hwan
19/5/2018
3653
pan
Séng
Tek
##TK
##6,1
##mond
Karate
chành
oil
Both
Hei
##sure
##5/2018/
7.4
##lượng
Ton
20/12/2018
Xia
18,3
541
##.845
0,5-1
Secure
ECO
##.275
##.306
##:46
##amo
Sheng
active
##riendship
##ILO
##.345
Bs
24.4
FAM
##NET
Niro
26.3
IAI
##maly
0,16
##.588
Amman
705
09:2
dânhuyện
##ám
##1973
xạc
80-90
-12
Dempsey
Dolphin
Gupta
Rainbow
Tarantino
lactic
Dielac
promotion
Cebu
ipad
Dynamo
ANTV
dớn
Pepsico
dancesport
##:10
##nori
osin
##67567
PHÁT
##rik
ANC
NDĐT
WFP
Assist
Syed
0292
these
NIS
sã
15,0
Vác
##.020
zôn
fe
Juno
##.451
Thề
##cks
##.508
Eid
MRT
CKII
##.288
3008
##THCS
##kay
##Thạch
##tàu
949
##kỷ
##Nguyên
16.9
Đố
##.2008
##bày
##TTCN
##2.600
##ison
GL
##rê
Leah
Kook
bass
##than
##TTH
##bun
##khan
##cổ
##2/2016/
##MV
Giô
31.5
##:03
##.339
##26.000
60-80
thuý
Vẹn
##-3-2015
23-25
##.617
Viktori
##toshi
CBCNVC
923
823
##1/8/2017
##0/50
KDT
##ize
chộn
##aldo
##nsen
##see
17.500
##ED
Russel
Andorra
Communist
Despacito
Eugene
Jaided
Katherine
Pracharat
Tasmania
Trinidad
Vertonghen
nhẻm
Mizuho
Mustang
Domesco
Clara
Volker
Wesley
Truman
Detox
004
##ắk
SkyActiv
##boy
0,13%
AfD
Contest
NEC
stressed
Rocc
27/7/2019
38/2015/
Jadon
##8,6
Nhươ
##NK
##sell
Hair
Cur
ghiền
##,15
reform
##anne
Leader
Images
worth
Proton
##.368
13.6
1/1/2013
##sở
1899
HHS
##.386
##6/2013/
14.3
AGM
Muang
15/03/201
##ulin
##.810
##Kiên
Yuki
##1989
13/13
766
WE
##stor
Egypt
1/6/2019
ĐL
Danko
12.2
##.185
13.8
##UV
##-6-2014
XT
Dõ
##/1/2020
1/7/2014
Ramsa
511
19,7
Juli
Fay
rặn
Punjab
Savchenko
Streep
Yasumasa
vonfram
Fiber
Hulk
Pagani
Churkin
đuợc
Đùng
23.260
DTY
09745
Benny
VGC
Cheryl
Levy
TTG
##.247
Vanga
Đốp
ROG
28-30
340.000
Nar
Gha
##-4-2015
1888
##.046
##737
9.3
Cở
thếgiới
BĐVN
4,99
19.6
##redo
539
ĐTTP
005
Gabba
##gua
01/03/201
##1/8/2019
##Sáng
Train
##Đường
##Cẩm
##nna
Expert
24.3
##olyn
Swing
Hyeon
##Hành
Jennie
##sức
##ech
##CRC
1912
##ast
##.885
SPS
care
##feld
Allah
##chip
##fried
578
Luk
Vinami
##.12
##.458
Factor
##ICOR
##kawi
Ala
1,36
##.142
Zak
Roth
##-91
838
##rận
##hd
##rut
1904
##face
dởm
Bucharest
DeAura
Fantasy
WADA
celebrate
Listeria
Wedding
lutein
Panamera
##cap
Candy
Sịa
05/2015/
NRA
##.425
##chy
Burger
scooter
##San
Boom
Reza
List
##.030
##.875
##.8.2018
##:11
Nine
##nath
14.10
ngỗ
579
##.668
##pie
Pegasu
Cris
HDL
014
30/12/2018
bloc
##VSLĐ
1,86
##eron
VISA
TDH
Hide
9-2019
village
61.000
##ODC
Paz
Misa
711
BTA
14.7
##elo
759
##3,2
##laine
##bang
9/2015.
##”
##.577
##.327
BNP
3500
Ur
NL
##gor
##Jet
16.2
##.438
Mill
##gli
Kou
18.2
##put
GCNQSD
success
##rivaddhanaprabha
Lithium
Mannschaft
Subasic
Partnership
Capello
DailyMail
Freddie
Weeknd
iPay
Blackberry
nịu
##3/2018/
makeup
Cayman
##Mertens
Mustafa
Kitô
Zoom
tuynel
Alexandra
Maybank
Berry
CTDV
BTR
##yun
17.4
##fall
593
##Dù
QTS
708
939
provinces
##SP
Miê
##.890
11/6/2018
Azure
Artemis
886
16/11/2017
##Nasri
Hajim
TOW
##.369
##nghiên
##GV
##.728
##9,1
##.325
##Thực
##240
##rồi
##.900
##Cái
##oke
EMS
##.069
Seok
TBS
##TLL
MSC
10.8
CCV
Simone
##IE
2-2016
##rina
##oè
702
Barak
##.676
3310
BTT
##2,2
##ASF
Ada
NDA
##.132
23.9
Hobb
Chamberlain
Sushi
Cheong
20.8
TPB
tâp
Said
##tto
Single
Kum
##qi
10.6
921
25.4
Lara
Abbey
Dwigh
Micronesia
Otofun
Swaraj
children
seminar
Presley
Maurice
Transport
Blanchett
just
##uka
18:9
Pạc
rướn
31/3/2017
##KRA
##aye
CMT
29.8
Rostec
##-77
16.4
Gâ
##8,5
##Bab
22/2013/
Rapid
Eve
##ean
##chứng
Guan
Poha
Hop
Chạ
##.627
##hana
Nik
##oe
##nov
##Sheikh
##Hib
##Lạng
Never
Repso
Gua
##sca
##.625
##ige
21,2%
Satya
Rim
01/02/201
##Pen
##och
lọn
Vale
##/2018;
##Pad
Snap
##jung
panel
##lưu
14.8
706
##sity
néo
998
Mono
UNI
##/1949
Suh
Pun
##.294
10:4
##.787
Bệ
##.828
highlight
##phu
Tị
Revolution
##ema
795
Bacolod
Bakayoko
Cristina
Essential
Fletcher
ICAEW
Lieberman
Nimitz
Ostapenko
Comfort
safety
Glory
Pavard
LiveBank
##393
Twice
Downing
admin
##.027
Yutu
Superman
11:05
971
##tty
TÂN
##.896
TSC
Subi
officials
Yama
Adolf
15.0
##/2018/
##sistance
##.497
##ctor
24/12/2018
27.8
Fallo
##7/12/2018
##/1955
##.459
1.440
1/12/2018
683
1,16
Mp
##bridge
ESC
Golo
678
##.106
##.683
##Hub
##ndice
Đơ
8.700
1,06
##ishi
LTD
574
cr
13.4
##tos
20.5
step
Hom
##iPhone
process
Fur
21,3%
complete
Ngón
02/9
904
VHC
18.9
##WC
1902
Bert
##.333
PVB
##imenez
##.3.733.26
Congress
Deulofeu
Gujarat
Maldini
Metfone
Pininfari
TechCrunch
Ventura
Epstein
Kirkuk
Yasay
Ecohome
CBVC
Vắcxin
received
Nauy
ParkCity
165.000
Dalat
##EPA
Milinkovic
##ireless
##ios
Markit
Danube
Diến
Theron
Huẩn
##.000.000.000
Bamba
painting
Milla
TNTP
xịch
642
Alfa
Santo
##.363
Wander
Bandar
##alla
Thoong
HSDT
0167
##110
get
5.10
dich
692
Phứ
##Direct
##Of
##1,4
##nacio
##Tiến
16,2%
75-100
##202
##ING
1/2012
##ally
##.937
vích
##kal
23.8
##dell
design
DDG
Yêm
##rini
##phy
088
fish
purin
Aria
611
6.2018
##combank
606
+7
Lori
Glen
Scud
##deco
##-9-2014
31.8
tourist
##YM
##.070
##-100%
23.150
##VX
MAC
##daily
Transformer
20.3
Iwa
Acecook
Seehofer
Carvalho
ALCII
Hanoisme
Payoo
Koeman
Barnes
Paddock
VNPost
Ketamine
Alo
Alessandro
Bihar
0,04%
Larsen
methamphetamine
##yne
Macan
##.636
along
Signal
##.198
982
Keeng
##bum
##GNL
##ons
##Mar
hỏn
22/12/2017
visits
##Wa
Bil
Fantastic
Ble
##lash
DĐ
1-1-2017
28.2
857
##inger
GIF
trĩnh
3,75
UCL
##tuyển
##biểu
##igo
Poh
31/03/201
1700
##ổn
##aud
##zel
##thy
1237
Rondon
11.3
Lancer
##đd
Thâu
59.000
##gger
##170
Hip
##.672
##Đặng
26.9
##tino
15.10
Bha
##yat
##Số
Sob
##Mark
##4,5
##As
##hao
##8,9
Some
##QA
Gri
Nast
##ilo
Levi
##oul
Lind
##gur
##core
Ernest
##đạo
12/09/201
##irivadhanabhakdi
Celerio
Hepburn
Kalashnikov
VINFAST
Yomiuri
Impossible
nhùng
Aladdin
##gio
##5/2010/
sém
##dler
Azzurri
##ovenpick
tiki
BNI
ÁN
Beats
CNV
658
##form
Dán
##OTRA
CTCT
1/6/2017
xốn
Giê
##oan
13.7
15/2015/
Plze
pixels
##/1956
2019/20
Kri
##pak
##ked
##.384
400,000
2034
##.385
##ille
##/1970
Host
##cic
##.995
vùn
Clement
17/10/2018
MACD
2015-2019
##1999
12/12/2018
23,6
Bot
##256
Princes
##lectrolux
##.868
Deja
Hyat
##til
##dee
##.581
##KB
##1988
##RW
19,1
VNS
##Crab
772
sền
##lines
nhum
##kể
Cheo
##Linkin
5.900
573
##-93
##:28
Cars
##travel
15.9
8-0
Valle
0,02
21/03/201
TAG
##wen
694
##7/2016/
Era
10:2
##.578
Nikol
Mahal
20-22
Rạn
##craft
15.11
Phung
1,24
##Consadole
RNM
Sokratis
Strategi
Chemical
Pamela
khựng
Frenki
Roadshow
Oreal
CBGV
Gede
statement
Denver
Noble
##Oliveira
SGTT
##6,7
2019-2022
Hour
cello
Capri
Warbur
Annie
##7,7
JC
VTB
Richar
22.500
##ửu
QTT
nghễ
40,5
20,2
##.610
Togo
##ern
30/6/2015
Gna
chẹ
##-1930
##ear
##.600.000
##.658
TNB
Sunda
##Se
564
##quận
##vốn
Howe
Malia
814
##ECO
mọn
Job
##athy
##Paul
##00-700
##194
Hel
MX
##EF
##milk
##chiều
##nghề
chun
##:31
##.165
Cnet
Maru
722
##lani
##LO
6/2011
Tua
##hard
##.6%
đảnh
rise
22-24
##mie
617
cafein
509
phan
1,72
Chul
##rad
21/02/201
Nusra
##lé
Rull
1.12
##ATTP
677
Khiên
##.234
7.10
Ndombele
Shadow
Jelly
Thammavong
Remote
Euromoney
Murillo
14:30
Monash
Soares
hiphop
##ove
Minaj
LLVTND
Alvarez
Riley
PDR
Nabil
Mellon
##eny
##7/2017/
Christophe
Maine
Fury
21,1
Yars
Arda
##eria
Tep
370.000
##EE
26-28
##xra
##fest
547
##95.000
Enter
metan
##3,1
Vac
Dien
NHTS
Hou
ACI
2015-16
##.362
##.486
Santi
Hừ
VIN
SEV
##9,9
497
Lynn
Lucia
##KTTH
20,0
##oom
##.795
##MD
30.11
##kon
##.038
Ain
##2019
19,4%
Joann
##vka
Gro
Gầm
Martí
Movi
27.9
Ridge
##SX
Scho
##MI
##OR
##yr
##3.143
##.587
TBM
Nun
##she
##panel
815
##hei
Kata
Berjaya
Ghibli
MacKenzie
Okhotnik
benefit
Kovalevskaia
Target
Vargas
access
hydrocarbon
commune
Hamlet
Sherman
JCI
Dinner
KSNDTC
PTTM
34,5
83/2014/
Gorbachev
MDF
##Min
10/2015.
##ener
Heath
##.805
Beo
Investments
2+2
CKD
Int
QK
GQ
auto
##.740
##đồ
Oc
nàyđã
##6658
15,9%
24.7
100-300
##4,9
##No
Rh
Aviva
Middle
##Quân
Devi
Doing
##.134
Cra
##.151
##rốc
##Savic
##Food
##luật
##Chương
think
ướ
Hẻ
Cir
##ien
Rene
937
Khoe
KW
##góp
1100
##sul
##esa
##vist
##PE
21.8
##wong
##HI
Sino
##Song
##.751
14,9%
operation
957
##.531
##ody
18,6%
rỗ
##.065
619
##-2-2015
721
XE
##5,6
Right
19,4
##5/2017/
##té
Barzagli
Cillessen
Fitzgeral
Godzilla
Murdoch
Schumacher
Seychelles
jailbreak
CenHomes
Convention
Zakhar
Forrest
Shakira
could
Carney
Calais
ICPC
Hessen
Luther
Camila
##-125
trạo
coli
##essie
NHA
Xabi
Dara
Weather
study
Pac
icon
631
##.211
##oming
##idae
175.000
Nơn
Brien
15/7/2019
##bas
##0559
1,74
AIP
##7,1
KHU
14/03/201
##lene
##CNV
##.250.000
Cent
Janse
Pou
875
##.3%
ft
##poli
Chou
##Sight
TQN
##Tuấn
##United
Patiy
Khoác
1,07
##sân
##Khoá
11.2
##Don
##een
400%
##biến
1,18
819
##rack
##oga
22,9%
##.392
Indie
BVDC
13.3
##nhóm
Wol
##.898
##chev
##HR
Cambodian
##.685
##ual
7,62
09/05/201
##hiro
##.686
Engine
Tó
NDC
##ammy
##fish
##12.000
##lick
##.400.000
##gard
717
##.120
##vai
##arnival
Cristian
##210
##sit
Stalin
Cholesterol
Nainggolan
Olympiakos
Safawi
Songkran
Ushakov
Variety
diezen
Divock
financial
panorama
Meizu
foster
##8.500
Dioxin
FTAAP
Narita
hotboy
Edison
Status
Lagos
Tsutom
37-39
challenges
DFB
Direction
Rư
##rassic
ngấu
Optima
##rate
PVFC
Bandung
##sheng
inches
RQ
Navy
##.143
Sup
##eira
19,3
10.200
Dragons
##zil
##ight
Oxali
26/11/2018
QHD
826
##gs
##.872
##:01
mun
Lống
##340
##tico
index
##motion
##thêm
bảođảm
ĐN
##.536
Kool
JVE
19,0
FF
##enne
TIME
Nấ
87.000
##4.400
20.6
ACE
534
VEF
Pape
FCC
966
Ele
##460
Háng
beo
Adriano
2019-20
nia
stop
##EV
644
14/02/201
##adding
Nia
##akis
##gang
Sales
Kr
Khảm
##tâm
15.12
anten
##USTR
Francesc
##but
##Batshuay
Dujarric
Mendoza
Brookings
Tiguan
favour
Trojan
Mehta
MicroDragon
NSAID
Gallup
Everland
retro
ICJ
##3/2012/
decal
ĐVSN
Vermont
PHÁP
Ethan
Mers
30-35%
Strauss
##7/2015/
achievement
##cent
Netherlands
RIM
##ẫng
domino
529
##AFTA
PVTM
757
Ryong
##độc
Soros
2019/2020
Sco
1.160
##bl
phospho
khuyển
LR
GBU
OIS
rađa
##88.000
##.141
##BL
giaoduc
Fars
##silk
Duck
Cass
Phênh
Jess
VGA
##THTG
Kal
Ket
##SS
##.568
ria
band
##trade
##TANDTC
##Office
##lợi
##nêu
##xuống
info
##ừ
##gaard
##46.000
Base
##.272
##Tuổi
596
##3.700
##.444
663
##.785
##PR
##.756
23.5
Bak
##cur
##2/2013/
Zoe
QUA
PX
##action
Martins
##.829
##bok
Unit
##matic
Kazu
53,5
##cứu
##mani
##.332
giạ
Civil
##enberg
##-8-2014
##HO
Dorsey
Elmich
Gattuso
Goffin
STEAM
VICOSTONE
Yasukuni
kangaroo
Cargill
Military
Borei
iMac
Healthcare
HTND
microphone
68/2000/
Jayden
Trĩ
Gilles
##tích
QPR
Pride
##kara
Lukashenko
Dead
IDI
##obi
Runner
Jedi
2010-2014
week
926
##gil
##ark
11.5
##lisa
16.500
tuê
##.443
##DVVL
Lohan
0239
878
Mằn
Reina
##279
758
1024
Habib
##opaz
thá
Ding
##1967
##school
Short
Arch
##mỗi
##88.
đượ
##Lâm
Quinn
Prom
Đác
Melo
Toto
BoJ
##.808
CLA
Anastasia
Ark
##NEP
##bev
Licht
##04/2004/
##mia
Ade
Sche
đự
triệuđồng
Chiu
##WE
Hem
21,7
15.1
30-70
0912
Brett
##205
1,04
##neft
##5.700
SNT
##mee
##ảo
Xr
##ĐQT
Lủ
Wes
##ạp
1.11
DEA
organ
Beyond
Boulevard
Experience
Implant
Kraisorn
Nottingham
vovinam
Goretzk
Shiyou
Skylake
Hamsik
Rogue
debut
Subeo
Reyes
VTHK
Plastic
Museum
Devon
Carmen
ViettelPay
Hayden
Syn
##ashimi
UPI
Kuczynski
Wash
Hó
##sid
sound
16,4
##horn
đẹ
##Dân
##1974
BIS
Khun
Duque
1909
Suwo
##õ
##ỏng
##.846
Rowi
##kat
19.2
Lazo
##SM
##enda
##.404
##aba
Portal
Anwar
DQ
##ume
81.000
##korn
##vie
##dt
##cause
machine
Waka
##coming
Supe
fast
71.000
SARS
Goh
NAS
##mooc
##1.100
22,5%
36,8
##.604
##yar
##yah
1.240
Crowne
Kuk
##boon
SIU
Barra
Masha
25.5
608
Wee
Ship
726
##ĐĐ
thưở
véc
##5000
11/03/201
Sat
NTV
6/2010
##.812
5/2011
812
Sein
Sud
##.196
17,1
##LP
Solution
HUT
##oux
Albion
Chennai
Christensen
McKenzie
Riviera
experts
relationship
Butina
Pierce
Olsen
Nigel
Sloan
mid
Khem
Skyline
##Ad
Moise
Hannah
2007-2008
Paju
Hôi
96.000
##ride
##bella
TENN
Faro
opMart
##avilion
Angelo
NKG
PNC
Sylvi
Here
##lou
CSP
13/09/201
816
##dat
Fang
Keep
09/09/201
##dock
Mìn
Kol
Associates
star
##HXD
Dại
##.428
##.7%
##.585
##rung
##00-1.000
##Phi
##atcher
##tie
##lek
Albu
##haus
18,4%
Chart
##đảo
##lịch
##ensis
Boun
##.605
AAC
##.935
28.7
##dic
##Cảnh
##dưới
##iyah
18-19
##ố
1/10/2017
##hub
##.482
##eros
Samo
##ando
##xô
Rou
##.025
##ions
##.467
14.9
Icon
##-180
##SAI
xổm
15,4
##lập
##ante
Dog
##tit
##.925
##.218
Chắn
Spi
KNS
probiotic
board
Susi
Alkmaar
Benghazi
Cullinan
Fonterra
glyphosate
Vasep
Collection
Suboi
Stories
Tokyu
hemoglobin
Derek
IDJ
ready
ISIL
Holly
CEN
86/2014/
Lian
caro
Pênh
##INDEX
1,28
KDH
exchanges
99,8%
football
Monkey
ngạnh
ruy
36,6
40-70
DKR
90+4
Să
##roma
KO
##uck
817
Maire
ngoạc
Rak
2.11
##CI
When
##.139
##hill
DTT
##xen
Crew
Uran
Vôi
##Â
4/2010
##hon
methyl
632
##across
##PB
Neu
##mei
##siri
##zka
84.000
##lém
Sấu
bủn
##eryl
Alexey
##.012
##-74
##liu
##itch
##western
##bell
##.181
##rlize
##ising
##HH
##CE
##jah
##NST
Bl
Flu
Shia
Baba
##/1953
##.128
DBS
##510
##sawa
##agher
Elise
##DICO
##aq
Panel
##omo
relat
##1.200
NVX
##osis
##VKTBKT
Mariupol
Novgorod
TGDĐ
Nebenzia
Prenn
Inquirer
Reuven
Death
ADSL
Espace
Hyogo
Peterson
Jaime
##GP
2012-2020
Roaming
20.2
private
Dona
##wai
31.3
##-96
early
24.2
Beth
Rivlin
search
Yuen
14/12/2018
##ùng
##kie
1,66
##.252
6331
##UK
22.8
##én
##6.700
##hung
##-59
703
12.2018
##.155
##rey
##Nobel
##XT
##.534
21,8
Prasa
##xim
738
##ped
##3076
##expo
##stop
##iller
##banking
##.546
##5.900
Konta
##ides
##.895
##ost
##BBC
##icue
lạn
##.778
##7.400
##CD
Person
##:52
598
PI
cap
##Bs
FTAs
##mba
##ears
##cố
4.2018
RSI
Adreno
Ayatollah
Fognini
Hackathon
Kandahar
Kitchee
Melanie
Nugroho
Pliskova
aflatoxin
giựt
supply
Ahmet
NVSCC
Akzo
VNPAY
Thomson
instagram
Thán
small
##.190
SÁNG
Reported
Nakao
##Po
WAGs
TXCT
Freiburg
Emilia
##ệp
31/7/2017
##-005
Casio
choé
Lumi
11.300
VNT
SDD
Svetlan
##.975
Rét
##/12/2019
##.057
42/2014/
##aims
khoắng
##ient
##.910
Zapat
##SIC
Worth
##-2022
##kệch
Liê
Chow
716
##rap
##TRA
##May
##.556
##.997
9.600
##.396
##site
rua
##.679
quyđịnh
##.001
##Connect
##Palestine
##Địa
##tomat
DHC
##.736
##Mặc
##bud
ask
Alert
##chak
##atia
21-23
##nio
##dre
##đáng
##nak
park
Dolly
##4.200
##.166
Sừ
##5.800
##iah
DDR
master
six
Đanh
9.6
##Hương
##.193
##RPH
Jak
Nui
827
Bass
##.626
Tră
lẽn
Jura
contributi
39-40
##rou
##nton
CVĐC
##830
Manu
##.648
##hal
##otti
##.453
Marti
##outinho
Eu
Malay
Sera
benzen
ketamin
Huayra
Kalanick
Triumf
UpCoM
dream
Stro
Softbank
Tizen
calcium
Visual
POPS
Marta
Europol
Inada
BankPlus
hão
GrabPay
SKY
đớp
organisations
MyGo
Brother
Zico
##.973
PPI
Barron
Satra
Bart
Martha
1288
LY
##arra
##.647
##.463
events
Michi
tiệp
1,14
##Kh
Burton
##7,6
0936
33,6
Juba
##+400
Phys
##moo
foot
##iền
##.405
Gret
##rang
##wing
mắcca
States
13,0
##sou
##Chu
01/11
Bala
##oát
NGA
##Phước
##quyền
##lý
##trọng
23.2
Jill
Trạo
##4.300
979
##wn
xxx
22.3
##.168
##ivity
GPA
##rac
846
25.8
Ava
26.8
##RSH
GDQP
781
6.10
##OF
task
Fung
736
##Bike
HM
silic
##xu
##quet
##.644
##răng
Edgar
22/02/201
##atsu
##.866
17.9
BG
artist
##Daejeon
Almoez
Bennington
ECOSOC
Initiative
Kommasith
Revenant
Tasnim
positive
Thegioididong
Bastion
Justice
Statham
Minuteman
Nomura
Trustbank
Unesco
Phraya
14.4
Topica
Vọt
EMV
Napas
##OÁN
##mes
##EI
agreements
tộ
##.387
Pyong
lúp
##luy
Ins
5/2016.
679
##Gold
##KO
##-1978
Shinji
##.777
##eli
##.815
##LC
##.767
LK
Mango
1907
##down
##QN
##.495
1/2/2019
##tani
##cco
##trip
Herzegovina
SEO
##.655
##ngư
##rys
understand
XN
Mot
##.058
Living
24.9
##.735
##2.800
Tửu
3.2018
##Phòng
732
Braun
TCHQ
Mùn
##buk
##nner
Gabi
22.9
##.357
##phường
##bound
XA
##.545
##charm
hoạtđộng
##.926
##oya
1,71
choline
##sche
671
##SĐK
Antony
##.174
Séo
Shay
##ramount
##evsky
18,2%
##.554
961
25-27
##ace
##GW
##rock
GTN
14001
##hằm
Marg
##urier
##VPCC
##.776
##2/2015/
##JP
25.12
##77-200
##.342
Marion
##Cha
##.466
Aspirin
Clapper
Deadpool
Dyachenko
HIMARS
Pretoria
VNREDSat
Belotti
Carroll
Handico
galaxy
Cóc
Lakeview
Shannon
55-9
better
Wigan
Boxer
ISEF
Emerson
Nhiễ
Natas
Gamma
10.400
Hardy
MSI
Murad
Scar
Xie
798
##SIM
##âu
##Sun
##2009
+5
##ester
Days
##zak
science
APH
19/12/2018
19,6
Hạp
##burn
##wire
QLĐT
07:2
14.2
##nguy
sộp
Pam
##nte
##.331
##otto
1906
25/02/201
Phớ
Vas
10,000
##par
Uỷban
##ocsin
Rise
##ITI
Ella
chũ
NCL
##Cấp
##View
##nghiêm
##OA
##NATO
##loại
##-1960
McAf
##khả
##-137
Woody
##tế
581
##.567
##.205
##:12
7/2015.
##thon
Norther
Ngườ
Ville
##.969
##1947
##.539
##PI
##zal
Kait
##.865
##ces
##jon
27.4
3/2014.
##.173
Shar
1,34
biêt
##.421
##cken
811
##ppy
CIF
##ATE
##71/2013/
Hiro
##:41
##.300.000
KOL
UC
##LF
##XK
Allardyce
Hemingway
Ratajkowski
Vibrio
Yamamoto
ZANU
Clyne
Phillippines
Rotten
Mercan
black
ieo
Muội
depot
iBT
trending
Gibbs
Letter
24-26
##lux
Sặt
Kiss
Quentin
Shige
VLN
quarter
##.371
##.804
island
##.3.2019
Gantz
premier
Freedo
Translate
Pratt
SCC
37/2015/
Gim
06/05/201
Drop
28.500
Myong
##asi
Walsh
money
Cậy
##hia
##1/5/2017
20/03/201
18/12/2018
Stand
Italian
CCS
##tier
6,98%
0902
Cre
bra
Pariba
##borg
Katsu
Pusk
17/12/2018
NAV
##thống
15/12/2016
651
Sienn
Duk
Teng
3.10
Xổm
##cen
##.696
##.632
nghẹ
##lane
##tái
COMA
centre
##Magazine
##Series
##dian
##/2012)
đẫy
Gum
CFA
##ying
952
Chopin
Clari
hinh
##truc
##.863
20.4
##.694
##ales
##stick
Shane
Lea
Martina
Kyu
Rus
##.874
##8.400
Fake
##1/2016/
##.509
##ood
##1.700
Ake
##roy
##ault
Lukas
18.6
force
##Cho
##chiếc
-11
DNXH
MDB
##yển
866
##.158
##vara
829
##.000-3.000
Alto
Lana
Chừ
##aid
Biz
10/5/2019
##vid
ĐX
gụ
##sao
##.490.000
##fur
8/2016.
Avangard
Deborah
RIMPAC
Sheremetyevo
Vietgap
Croft
Pencil
VMware
##RPMU
Crescen
CETA
Nantes
Kharkov
TransViet
Dancila
rural
Karachi
Sportback
Miniso
Tsitsi
Polytechnic
UL
Ulyanovsk
growing
FinTech
Damac
Palo
every
Piêu
Nếnh
Spike
99/2015/
Cạ
Palang
Study
ỏ
##.354
##580
bida
##rone
##.591
##live
##dl
ghìm
##recision
##/1941
story
Kayak
11/09/201
DSVH
KA
##chart
##bac
##4.700
2560
##stock
##REC
##dao
##itama
##assurance
##uang
##chul
Agro
##.548
##.422
Tộc
Loi
##riu
##Trà
##mac
##kowski
monora
##shir
##enzie
TTLT
##Bu
Amri
##.153
##XS
VIS
##3.200
Techno
##.049
AW
##Đinh
amia
ĐC
##2010
903
##ode
##Tỉnh
##-51
##mundo
18,0
Def
18,1
04/03/201
Presto
Bath
include
Kalini
##.447
591
Ruth
##mall
##.695
##III
##.818
##AFF
##phục
Strange
##hloe
Ní
compa
07/09/201
APC
##.989
996
Chô
##6/2018/
##.341
performance
##.654
Electronic
Albiceleste
CONCACAF
Carscoops
Floyd
Gosling
Maleficent
Patrushev
RockStorm
Tornado
UNFPA
acrylamid
herpes
Architecture
Maracana
Ponagar
ThinkPad
ictnews
Benteke
11/6/1948
password
##Quality
ZaloPay
Sokhon
underground
##.569
webcam
Local
milimet
Fallujah
higher
Becks
Gapo
935
PO
Yue
CHC
##220
##wise
Barrier
28/8/2019
cắc
28/12/2016
##.582
14/1/2019
pv
Dầy
##.769
##cel
Aichi
##.002
GVC
824
gía
##.175
##oji
VPI
kông
SPDV
##.278
24,7
##wel
Works
##fort
##pat
TTL
19/11/2018
##hani
##.745
NEM
##far
MKI
##PJ
Rốc
0919
##BTU
Chèm
##SSI
2.500.000
##Masdar
Pas
##vik
##đúng
##DUP
##Sài
Kumamo
##cola
1/2015.
Seafood
##dha
##.085
##.899
##Express
##abi
##.437
##.712
VBS
lị
Prada
Bênh
643
Dò
6.000.000
##tom
Shot
KQXSMTR
13.1
##.358
##ôi
thuạ
##bul
12/2014.
Silvi
##danh
##.431
##.682
##.843
VSD
LAM
Fre
Jaya
dd
Mann
##-60%
##Lót
##mos
##ange
##racy
bớ
##.549
1,09
##kong
13/03/201
607
Isabell
##HSST
##GI
Soe
bath
Sokha
##ée
##.764
##XL
27/03/201
Azpil
Bikini
Chapecoense
District
Faisal
Leekpai
Marshmallow
Osprey
PJICO
Spavor
Virtual
Cabello
Ochoa
Ekaterina
##ellulose
Rainsy
Maruti
Erawan
launched
Corning
Chột
OIL
Quantum
streaming
##DMA
Ready
VASS
airport
THAO
phèo
Champagne
##rge
Đấ
##.593
nin
0,12%
Skytra
Hanson
560.000
##iểng
##ego
##.753
join
##iva
##.188
compare
Matthews
##.036
##lah
17,9
##igge
0,21
##TCCB
Bonn
15/2018/
##/48
Token
keng
##-120.000
Tet
##.566
733
##.436
##7.500
VCF
877
12/03/201
20/09/201
vói
0909
Bab
##.231
##104
Goto
##rfan
##.833
##leo
##.722
##.355
##.338
32,5%
##WG
Saman
ae
##Pierre
22,4%
23,7
##.265
##dù
20,8%
##.516
##power
##.374
Cas
Salt
SMA
##.932
Tụng
Og
##KTS
##nick
##DG
mooc
##rez
Final
đừ
##kra
##8.600
Pope
28,7
##Tanf
##đá
leng
832
Bim
##oon
HDD
put
6/2014.
##.726
pe
##1/10/2017
##erge
##trix
##achi
##.304
Meun
##pert
Sig
##park
5/2015.
Perfect
WIN
##căng
##.759
23-24
##.503
49,5
##Cam
##.455
99.000
Goa
xáng
Inca
Collin
Cover
40-80
##verse
##viên
ngộn
Đẻ
##UNWTO
Agreement
Bermúdez
Manufacturing
Rossoneri
commitment
Haspel
Tikrit
UpCom
original
Glasgow
Takebe
Pomina
Equipe
Jefferson
Fekir
Always
Luhansk
Metropolis
##Corvette
representatives
Tiển
##STC
23.250
bongda
##GĐ
Vietmindo
##Đa
##nikov
Mikel
Herman
Sadec
##1.800
##.639
09/07/201
Fairy
##Gate
NEU
23.300
Arak
##ain
##kt
BVHTTDL
SMART
##hem
2.750
##kyu
xoe
##.689
##.299
##2.400
1,23
##.934
##lace
##wich
Fal
23/05/201
##chang
##trách
##lễ
##nổi
83.000
Burg
Saab
##.665
Loá
Plann
##jani
##9/2018/
Fuku
coming
##.802
##pool
##vui
AHA
Kaya
Franc
##naya
0,03
##TBV
##.035
##linda
liệ
##ija
##rkin
Lon
##dale
ACM
##ựa
##1/7/2018
##,2%
ITS
##fen
1,42
Kô
Forte
##LED
UP
##elow
TVC
SPA
##jit
Dame
ART
plug
##8/12/2017
MTA
Doodle
Bautista
EATOF
Figaro
Navalny
Saakashvili
Zabaleta
Kwok
Sheikhoun
Milovan
Sanatech
Tribeco
tuvanphapluat
Edwin
190080
05:01
Passion
ADHD
Nhỡ
Pl
45/2014/
Hiddleston
Sportia
zero
Mehr
2019-2023
##etz
##Wolbachia
Khử
2019-2025
1802
27/06/2019
Helena
Verd
##.163
WD
Vil
Bagan
##66.000
##OOL
month
##ATGTQG
##bố
Dak
soóc
##phe
10.2
##antic
Isa
##alal
Seth
BMC
##.367
Logi
18.1
25/03/201
chinhphu
##idget
##hand
Chee
Gbps
Sit
03/02/201
Ravi
25.11
Hol
##.599
1916
Kot
encourage
trạn
Saud
##Donald
##Science
##.496
Toshi
809
##chuẩn
ECU
##.783
16+
##skiy
09:1
16.6
##.867
Sigmar
Bol
offer
##SSA
##Tiếp
Thale
##mid
##7,5
NPC
##series
##.633
954
Phy
804
Fen
##wick
RCI
final
29.7
##.475
Hosk
Vươ
##rist
##.927
962
##door
Ngực
1+1
luô
##dol
##106
22,2
10.9
Cave
##NNHC
693
Cũ
##trans
granit
Akinfee
Bouchard
Brigitte
Executive
Insigne
Retno
Stryker
attention
Chevron
ThinQ
PlayStation
Fortuna
MobiTV
Brasilia
##Wikileaks
Versailles
champions
NGND
Robson
Hogan
Andriy
poke
opening
Squad
0,55%
2-2,5
welcomes
620.000
##gười
##repeat
Shyn
VVT
Daniels
27/12/2017
tém
stable
CCQ
##.832
Intra
QLCT
82.000
##tner
##.646
1.170
##.871
60-65
##griculture
##.761
Dem
Ryo
##VNCH
##ott
##.434
##part
00:1
15.500
Level
##-71
pham
olive
Jeans
##.699
Come
##.477
20,2%
6.900
Amano
Rudi
##dep
##nghị
PCTH
##Gallery
20/5/2019
##He
11/2019
##-58
11/10/2017
Ante
Bag
20/10/2017
Saka
PCC
##.721
Arte
##:26
samba
##7.900
##ồ
##3/2017/
##arage
##some
##tặng
##.471
Chae
##shot
##duy
Pung
13.2
arsen
##IPAS
22.4
Rs
100-120
##iana
##.228
Bebe
##Mông
##-1-2014
##/1931
##999
EE
##trận
10.12
##hampagne
##Đài
##sand
gở
Agent
##Callum
##Patterson
Cleopatra
Germanwings
Montpellier
Volgograd
AIMAG
Leningrad
Byă
Karzai
Perkins
Kasper
Sejong
common
announced
GTĐB
Shearer
Kobaya
Rieng
reception
Rasid
IPTV
Mickey
##oner
Verona
Scorpions
methane
Cowell
##.962
XPS
standard
Yellow
0,14%
##.033
24.5
##.703
bot
AOC
27/6/2019
597
##.882
##.448
##wy
CTNH
23/10/2017
QUT
##ốn
1898
29.6
Nghêu
##.8.2017
11/2009
##/9/2009
1885
Soa
##ule
16,0
##ÁI
##rno
Vel
Tone
656
##.465
073
9/2010
Product
##rot
887
##.111
Anak
Hú
21.9
##aland
##sko
##.594
##raith
Track
##53.000
12.2017
tonne
##Thiên
##vượt
##đầy
bio
##Sky
##Page
##Cũng
##INA
papa
41,2
39,2
Heinz
Jorn
##.774
##khoá
##2016
##HIS
##dos
CNT
##VTV
##GRU
Wea
Xavier
kVA
##hải
Rue
003
##FOOD
Unite
##ôl
20/20
Medic
##33.000
##.920
##.540
17.6
943
HIS
##.954
##anov
Marko
Nash
##vico
heritage
##.472
Kolarov
Organization
TPBVSK
Tienphong
Uniqlo
Vostok
Watanabe
women
Isarel
KOVA
Viphavan
Margot
ruộm
Thủtướng
PHOTO
trẽn
Kumho
Where
XLNT
Harare
2017/18
##Hàng
##tman
##tip
Dayton
Yorkshire
Myster
HNCC
Common
kilo
Mipec
Artex
KLS
600-700
##oor
##ấc
##Gen
HFC
##orica
##Bí
Blo
##express
##.104
776
##.965
Niết
##.657
##-88
Vadim
2014-15
Put
779
##nghe
QLHC
##gle
##.395
86.000
##mov
##.292
##uth
Maz
##đàn
##.789
ITP
##102
##.884
##isi
##6.600
Mes
01/10
##vtv
778
##.836
##.276
Abel
##hz
##Mỗi
##ả
##mạng
##vat
nhíp
##cuối
746
##cera
##CPO
##iev
Kwan
18/03/201
min
Wick
##gợi
##.376
##:33
Khư
##.698
958
##.154
##TECH
Vida
##.003
##Play
1,37
##.406
chêm
##tranh
##.628
##ull
##bara
Bul
06/04/201
633
AAP
lab
##.799
##/25
Break
##.432
VMA
Pisa
##7/2010/
##.746
Neal
##tton
##eller
far
##ways
DRC
Sook
##.848
##105
17.8
##,500,000
MeToo
Sayasone
Sigurdsson
acrylic
ibuprofen
progesteron
situation
zombie
Calibri
Higgins
address
amoniac
spotlight
28/7/1929
USFK
##ouk
Broadcom
Kenji
NetNam
Sovico
##ripala
Medina
dialogue
Podolski
##humi
Products
##/1/2010
chấy
Xăm
IPCC
hợi
##.162
916
Carrasco
0,23%
##.517
##binh
driver
50-150
TVQH
##khla
groups
##.731
UAC
Ile
Quin
Raz
##amip
Bowl
Yoona
DSA
Frederick
Abd
16,1
##9/5/2015
Lor
Sciences
##.543
2012-2014
11.6
Meet
1.720
##oldsky
20,3
Muk
22/10/2018
764
##gay
CCT
24/09/201
##rant
##arley
##.838
Vồng
CBCN
##deh
##ities
Avalo
Kazuo
##rada
901
Yê
pole
##.656
##QLD
##sonar
Queens
##ộn
Truiden
##emba
Rani
##.203
##1/2017/
11.8
##oxy
##ùi
tráp
##ớng
##Type
##Belarus
##Đống
##.388
Nết
##nez
##Islam
##.413
Yoshino
##tó
##Giáo
30.5
##.401
24,4
0905
Ata
775
nghệch
52,5
657
020
Samar
##80,000
##TGĐ
##.598
Cui
##.258
##sp
##.366
##.326
##.681
##.857
##FP
Vietstar
##0-100%
##đón
##.488
##-86
##lom
##.586
Rat
##-82
90-100
3/2010
22,9
##ững
Sacomrea
##elia
GVM
##.356
vlog
##stream
##Radwanska
Kommersant
Matthias
Musudan
Rajasthan
Sustainab
Tribune
Vinamotor
Memorial
jumpsuit
##vietjetair
Rupert
Tobago
Ripple
pectin
15:30
Pixar
Medley
04/2017/
DLQG
Drone
##ect
Upcom
Chivas
Blais
About
Totti
##.324
##/1951
##rùm
##sus
Saber
##.553
853
Volodin
12/2010
39/2018/
PAP
##.590
##.439
753
11/2013/
Pepper
1-1-2015
Trail
##.584
##.135
##6136
##.619
##.419
CĐM
##.115
##trưởng
646
shape
##ợp
Vasily
912
07/03/201
Bett
##stad
##.199
##.159
774
CTI
##Lai
##7.300
##bos
GF
STNMT
##crai
##.747
ĐHTT
27,2
##Watch
##Invest
##Mác
##Bỉ
##lân
0989
5.12
802.1
Fat
Mè
##.638
##Đội
##.706
##CRV
21.4
Pack
5-15
##.603
##ICT
22/03/201
Marsu
Carla
987
##ESS
CBC
1,58
##nghi
##nut
02/03/201
lakh
##tone
TNH
##.271
##ganov
##sống
tiển
##Eng
##5.100
##RL
##ứ
2/2016.
12.8
Kad
##Họ
##trái
##939
310.000
956
QNA
Driver
Reh
22,8
Myanma
respect
Calhanoglu
Chittick
Itsunori
oxali
Obi
##gallery
Chhum
Airblade
Aspas
Volga
Annan
Baloch
concern
Notre
##CKQT
innovation
18.8
Sousa
##Scopus
744
Caravan
Neves
##.911
Wasp
Booking
Yury
86/2015/
Elisabet
Connection
VBI
##graph
Xan
eef
##.427
PTIT
145.000
CHKQT
28,8
29/12/2018
amoni
Gâm
1,03
17+
##SET
##.504
08/03/201
Gazzett
##ardo
##KR
IIA
##huýt
##0-350
##.528
Raider
1.360
##kayama
16.1
##My
##-148
##tuổi
Múc
##8/2014/
Reader
##NSH
##-6-2012
##402
##uyệt
##LV
Pais
##.737
##tê
##.179
##try
20/4/2018
##.246
Jeonbu
79.000
vote
##.328
##.852
8.2018
##-105
20,6%
##Ferrari
##Italy
##Yên
1,63
##xxxx
##ịa
##Vương
Gee
##most
##rella
##ệm
##ggi
##elin
##Trans
tax
Vallet
0,04
Chứt
Sui
88.000
mono
763
##.964
##Hong
den
762
566
##tiết
##uki
##ites
##:57
##Nha
NE
19/03/201
Jock
Michele
##not
##-75
1/12/2017
Ngừ
Shine
Swa
raise
0938
Inside
Bundchen
Eritrea
Nehru
Pratyusha
enjoy
Tsonga
Mainichi
Shayrat
mashup
Odegaar
approve
Leopard
22,3
CBCCVCLĐ
Leica
##Entity
McDo
UBTW
SDTV
profile
##property
Đét
gamma
##spa
155/2016/
47,5
values
1,57
Teresa
##kia
Prado
PHI
##.641
##.669
Por
##umer
Celik
Andes
##-84
##2.200
##ABECO
##.145
Jas
##ota
1789
DACA
19/8/2019
23/03/201
##CMHS
##787
##téc
2017-18
8.100
ASM
##ạc
##UE
##kamura
21,1%
##.854
sing
Jac
##.966
8.900
##6.800
1/8/2016
Pilot
##sten
Bola
Sor
lỏ
##.824
##.042
##6,5
##master
##Secure
##.936
##mori
852
OEM
##lei
##Giao
##everal
##5.300
##oral
##.719
##Tình
##.615
21,0
##ste
9/2009
##mis
##ovo
##7.200
MNP
TTX
07/05/201
807
VNI
based
Georg
Kre
##.178
691
##hốt
Lươ
26.2
##0-120
phây
##HNT
##9/2010/
##.156
##.149
18.4
##ọt
##.364
##dri
##2.5
##.887
##TKNL
Parago
##upe
Balakrishnan
Brozovi
Exhibition
Flanders
Greenpeace
Hishammuddin
MyVIB
Santorini
WeWork
Lenglet
Robusta
Wakayama
Kaplan
Kpă
CMOS
Winnie
Gijon
##fven
Ottoman
cooperative
Flying
##.217
Figo
Why
Gb
CBMP
Knox
sandals
##GLA
102%
##.034
0,31%
##720
##ichiko
booking
##SHĐ
##950
62/2011/
Wallace
##rrell
##RD
Handanovi
##loop
##.474
Hí
21.1
##spire
36/2014/
Boer
##.351
Vidi
##.089
##63.000
##.609
Raab
Willy
5/2010
##bic
##pec
Bryant
1,19
moon
##wee
##.373
highl
##creating
##aputo
##aux
ASIA
##hé
##TQLCL
##tnam
##3105
##.346
9,35
##atta
TST
21,9
##char
Schr
##omi
29.9
26.4
##lite
##obo
##SDĐ
##SNS
##anti
##enco
##-1985
6/2015.
Chandra
7.900
Hamon
##phiên
##-004
##On
##connect
##vol
Golov
##bes
##Times
##9.400
##TXD
Triple
-50
vietnam
##lini
polyme
kid
##nạn
soon
Wilfrie
##43.000
##uong
31/12/20
##lt
##estate
##.267
##/9/1945
Hell
##giám
##otel
##addy
##40,000
DIG
##.416
##-45%
##endra
##ĩa
Sapo
##.573
##eff
##itibank
##hồ
ặ
##term
##ized
##ươ
225.000
##.255
##1,6
##zhou
##2,0
##prom
Richards
##.245
##.716
08:30
##hil
1903
##.552
##Article
##VLXKN
Barbados
Blackpink
Cannavaro
Citadine
Crazy
Réhahn
Thunderbolt
Timberlake
Transfermarkt
Winslet
Zeitung
traffic
Fahasa
Karofi
plutonium
Claus
Rummen
Gennad
Techmart
lupus
Billiard
xDrive
clorua
Kruger
contact
Goran
DE
Kristina
HABECO
XXII
##slav
##2/2008/
##mor
##monoxide
establishment
MOS
##uya
##urg
UBTP
##.877
##két
Golfer
##.715
MLC
1.490.000
trust
##.514
Form
##.565
22.700
##cai
##gne
##4/2017/
ĐHBK
##bah
##Mu
##.861
Zipp
##.624
##blo
6.11
##.700
##-35%
6,5-7
##lles
##tik
NYT
06/03/201
##laga
1020
dopamine
khú
Ulan
##.984
##ative
##.268
##.478
##212
##gers
862
2029
##Bản
Giun
laze
producer
51,5
1,000
##cit
Advance
15.3
Pee
##koo
##.473
##đơ
Abdulla
##ndon
##.956
Curio
16.10
##ude
##Karabakh
##onny
##Amsterdam
Rana
##biển
##.558
APS
Sel
##.397
947
Kuma
##7/2018/
##6000
##asci
02/02/201
12/2009
##oét
08/05/201
##phen
##LR
##rias
Mills
##ugu
qú
chance
##ĐD
864
##rine
##ved
##.979
##OV
##.907
1,54
Toshihi
DLG
Ir
##.485
##.781
DAX
##.643
##rer
##.664
##any
BVR
4/2014.
##.296
27,6
VOS
##sseldorf
Pah
##17.000
14/09/201
Genk
Đả
##ario
Deal
12/02/201
research
10:5
0,00
##ncy
Bulgari
##huong
3/2015.
742
Freeman
##3.000
Many
784
Avicii
CENTCOM
Hierro
MARGIN
Nistelrooy
Nolito
Sanamxay
snack
Ipsos
extension
Belgium
Mashable
Walid
JOY
piston
participation
Richie
Interview
Genting
Switch
##BCĐ
Mercy
Record
19:30
Command
05/02/201
Part
##sic
Kwong
Ngoãn
Dodge
Siêng
levels
Epso
retail
Păm
party
Jut
REUTER
7/1/197
Lươn
##.182
##8.200
Nhế
Nikko
##.986
VNL
Ams
##Chan
Grove
006
Million
##.521
tip
4.12
##.189
09/03/201
##vent
Rosato
works
928
##.452
Latte
BÁ
##SY
Boot
##kv
dual
##CTA
Rep
##tine
##homes
##9.300
##DU
##.982
13/14
##.786
##farm
##.667
Nat
hụ
##ult
##SEC
Ave
-20
Mead
BU
Itar
##Chợ
##gala
##dz
##type
##made
31/05/201
##3621
24/03/201
##.311
##căn
ICA
##.053
19/09/201
##read
##alis
Argo
##canh
963
##.608
##FR
glyco
##-5-2012
Citizen
Stu
##vision
##Coin
phạc
##gro
##.886
867
Jos
10-2019
942
sp
##.441
##.891
Chă
Bos
647
##POSCO
##-80.000
Hayat
28-29
Attila
Cazeneuve
Nagorno
Norfolk
Ransomware
Rosoboronexpor
Sonadezi
extend
multilateral
Shimizu
ĐKĐĐ
Cassini
Nizhny
##.146
Stadium
Phượt
Process
VPĐD
arsenal
ICIJ
##ĐMDN
Norton
HCLS
Wonderland
Gwyne
Eugeni
kaki
Trèo
Salavan
Course
Zahara
Khấu
##Andre
HAR
dũa
TEPCO
LHTT
UX
##alotel
##.242
Graphic
##.616
Afar
27.3
Samco
0,11%
##.454
coffee
CNET
##.456
##399
Plant
sui
460.000
Klong
Milik
Hỳ
##6/2010/
mom
##.469
##dr
Kien
##.713
Thụt
estimate
600,000
751
Drag
##ANG
1,56
Legia
##ghẽ
1.290
##cải
Geoffre
##.171
15/3/2017
1.180
##hô
Uche
Zor
##nking
15/3/2019
##cking
##relli
31.10
##.429
##.968
##.847
Chồ
NIM
Monf
##.659
Noor
05:2
Butt
##levant
##.063
away
##OUR
734
##zim
PTE
VTA
##cca
##Michel
##Suối
##Pu
Issa
##.251
0918
RI
Gerd
ACA
Giôn
##pard
##arek
1895
##BXH
##nos
Michal
Amar
Nỏ
##jet
##Nh
##uộc
Away
##eat
times
ISC
##JS
##rok
##bài
Help
11.12
##.000-4.000
Ise
##.309
found
##9/2011/
Amal
##TLĐ
Chạc
Tos
Lis
##ĩnh
Zac
Sof
##AMCO
##.124
1/2010
kiển
##/02/2015
Albright
Alcatel
Azmoun
Chapter
Cosgrove
Economy
Klinsmann
Ludogorets
Maharashtra
Restaurant
UOB
##vietinbank
Commission
Yameen
Gutierre
Jewelry
Straitstimes
Mertes
Sushm
Liege
Ritsu
Schindl
bungalow
##.856
Olimpico
Athena
Jrai
Chubb
Longstaff
IISS
Mangala
slow
BCVT
01/2017/
Abass
Beni
Brys
publisher
1.120
Lange
Egroup
Soha
Thanos
Ariston
##-18%
##ander
00:2
0,27%
LCS
55/2015/
##490
##2/2011/
10.800
##.232
Xú
protect
PHR
##liance
Stylis
32/2015/
Trọ
##.417
cloud
Deliver
nld
26/10/2018
15.4
broker
thuồng
##.773
1,67
##-4-1
19.3
##hoẻn
##.216
##.988
28.4
Patel
QE
##-1961
##ias
##2.700
Vesta
Gina
12/2008
Kheng
Nhum
Shilo
28.11
-18
##Đề
20,3%
793
##ODY
##ske
##Smith
##Kỳ
##1.300
##nghỉ
##Box
Bén
##tze
Rondo
Graf
430.000
##tronic
##nat
Arsen
21.3
##/26
##.794
##Preview
ure
##.909
TKĐ
##.525
##.219
Rebi
lổn
##.714
Loren
10/4/2019
##6.200
Arm
##sine
##Tham
29.5
##uwa
HOME
red
##302
##.835
##RG
OFF
##.634
01/07/201
##odex
##uble
Rota
Gram
Thoải
##SEA
30/03/201
TÁC
##SG
##utu
Siva
##.674
##rsson
OH
##owitz
Matxco
92/2009/
Alstom
Antwerp
Bataclan
Bjorn
Ortagus
Toshimitsu
Tymoshenko
Yahya
improvi
infographic
Arleigh
Maximark
Pukguksong
Sarawak
Desktop
remote
Evoque
Essex
capsaicin
HanoiRedtours
NextTech
##3/2006/
##8/2011/
complex
grow
Gameshow
Russo
Kiir
solutions
##1945
Cortex
Digne
half
Gelex
lounge
Frost
Bet
xilanh
Weber
seven
rụm
Duân
32-34
Toys
##phar
Farah
0914
Yeltsin
QTV
Saki
Ballet
##.779
1,95
##.562
##ém
Chôn
APOE
Mahdi
Kau
old
Natto
Thiềng
Manning
IOT
##.037
06:2
Constr
##mưa
##hane
##ersei
where
##lletti
##erca
##jing
99,6%
##.908
1,33
Indi
Yoko
##hari
Kus
19-20
26,8
Aman
11/2010
##SMBC
Werde
cácbon
##jae
Ox
20/8/2019
nhàđầu
dòi
##.157
##stic
##.718
##690
##.821
##illon
##reen
tôiđã
05/09/201
##chân
##NQG
1.920
##đổ
##.022
Andri
##jko
##lem
TIC
##ản
11.200
khể
##interest
Ob
##/1/2009
##.906
Phốt
##LL
##143
##Khoa
##exe
##.876
09/08/201
##ungroup
##ghe
##cheng
1001
##nhạc
SLS
Bron
BX
##store
Read
Fion
28.9
Sulu
847
##CERA
##rata
##QR
##555
##TY
Dô
##rino
##bed
NIC
Nanya
##.381
Wah
##ZA
##.2020
McCa
CTS
##.233
##enzo
16/03/201
859
##aza
##.557
##TMZ
Sep
##-1971
##iệt
##bone
##-1953
Developer
tank
Commercial
Coupole
Kunduz
Saleumxay
VINACONEX
kilômét
Rupee
Cellphone
Current
HomePod
##mission
Lagoon
Miyako
generic
Abdes
Fargo
##REPE
picnic
Oplus
##alogen
ngđ
Thitip
##akul
Tomatoes
sẩm
PETRO
##inas
Marise
##Line
Chance
##stead
Florian
12,0
##1,9
983
##mọi
##fire
##-250
Salva
XQ
##.537
Kle
1905
3/2009
Export
Epic
29.11
1.2019
##eem
xôm
Edmund
##elso
##95%
Cou
Zaw
Lover
16.11
Apps
xx
dde
##NY
Nide
Đâylà
22,4
Kago
Nana
##hir
zing
Kitt
##.253
Maith
wish
##.045
Dear
interest
##vey
Turk
##.426
cara
##.344
Via
cash
23.1
36,55
Motion
##.893
##Japan
##đứng
##.210.000
##Apple
##Green
##Bạn
##dley
7.2018
##SXD
##phích
876
##.938
20.1
Nhim
##.097
24.1
##tiểu
1,59
##tung
Sumo
##NW
##feed
field
##85.000
Kirk
BCS
##lf
##bổ
15/02/201
##hạn
5/7/2019
Jeb
##rup
BTN
Thae
##70,000
how
Bón
10/2014.
Logic
##.119
##Price
##AG
##yas
7.000.000
##1994
##lich
##xan
##.177
tango
Tito
##.435
##.285
Fabi
##1/3/2014
Trum
##orga
##4/2019/
##.161
26.5
Takeo
697
##ses
Regina
##rgen
##.811
##57.000
DG
Koji
revenue
Tax
440.000
WR
##dle
Bosphorus
Caucasus
Delevingne
Macquarie
Miroslav
Nougat
economies
vodka
Kafka
Slovan
androgen
Hermini
Turkish
Bullock
Rosenstein
Teaser
Marrake
Mizuki
Superjet
24,3
nuớc
Upton
Ayman
BAE
mechanisms
26/03/201
UPR
forums
cũngđã
Oto
SSEA
avata
126/2017/
17.1
Olympiad
##tea
-2018
##.579
Springs
Xue
Boost
Pant
NHTMCP
1/8/2017
##ngoài
Nikai
##nào
Krong
##nét
8.11
##4.800
##mmerson
Zizo
##-1986
##Kha
##ants
BCC
##nny
Cheol
14/4/2017
##ustin
Bento
UBDT
##uoi
##.314
##.088
port
##bio
Hariri
##Miss
Tạch
##.095
##hien
0915
##340301
##.993
##quả
854
Ché
Phay
micromet
##.894
20/9/2019
Teh
##HK
24.8
##8.800
##TLTN
Admiral
739
##mini
##Seo
##chức
##.062
##MJ
##DM
2,67
7/5/195
nhuốc
Phon
OTA
##lop
Moi
##xuân
##arin
##Tính
1,79
2.12
2,85
1520
##shaw
##alo
23,8%
##.013
##ws
##TJ
##.076
782
VAN
##.748
##.678
##7.600
##CISE
Glori
##hall
##:24
682
Pine
##dition
038
##hisa
mili
##.922
##.10.2016
BKHCN
Task
##1997
##.315
Maidan
13.10
lich
##-94
##appa
Thuan
14:5
950.000
Thongsi
##.842
##.361
1050
30.10
Feel
##duong
Major
##70%
TSG
Sạn
##douard
##.653
##.606
Counterpoint
Hidalgo
Impulse
Kavkaz
Liberec
PVGAS
Ratchasima
Sturgeon
Vujicic
Wozniak
Guangzhou
Kumgang
Lausanne
History
Jamona
Zahid
Warszawa
technologies
Roàng
tryptophan
botnet
SmartHome
reset
Kingston
Decla
testosteron
Carpio
RAV
##ớn
23.140
Siêm
Naver
TDBVANT
116/2017/
Khon
Myoung
##22.000
##VAN
GLE
##.541
shorts
thạ
Corner
##shared
##mục
contest
##333
ABA
##Lee
PMC
##.084
tuk
Cruises
##nền
##geni
##.612
##ente
XSMB
##amin
giađình
LAO
##To
hển
UKA
##990
##thí
Glee
##.099
SCI
Soda
##4.900
quota
29.3
##.918
12.10
##heim
Mila
Dập
##.398
##.708
##Hi
Schu
Cobra
Akka
##.945
4/2009
4.10
Father
##tương
##.744
Male
##VIDC
1340
chief
62,5
25.10
Asa
##Ar
##TCHQ
##VKSNDTC
Passa
##Fone
1816
##fun
##DTTS
15/09/201
##.254
##.743
##ET
Meg
##.334
##dison
##.068
CMI
##.839
Đră
892
##edder
908
0,45
##.379
##keo
##valdo
##.564
933
Cine
##.318
0,12
##oegel
##.687
##.052
STO
##PO
##GM
06/02/201
clean
Ido
687
Kaga
##resma
##+2
Church
##Tchaikovsky
Cessna
CyRadar
Hapulico
Hellfire
Ibiza
Kluivert
LICOGI
Oaxaca
Phnompenh
Predator
biggest
southern
whitmore
Kratie
CPTTP
Caitlin
Fitbit
Richmond
Minamino
Properti
nitric
Sunwah
Arabica
Sirte
Froman
Pui
##1.400
Nusa
Kappa
CNPC
THTK
Lighting
coach
Eisenhower
UUV
833
SAO
##ury
18/02/201
coca
natural
##-17%
##.948
ISA
Subic
Kis
Craft
1.950
chể
2,15
##dio
cell
Sardar
KTO
Lemon
##108
Zar
##ady
##.941
##free
ruỗ
##CON
828
10/2009
streamer
##itan
##rest
Wade
Hermann
OCA
Mandy
##.064
##tok
1/2009
macro
Hut
##.224
##:50
Alexandr
##tsev
##egan
Christ
Wink
##ging
03/03/201
DCM
ản
##tain
Damon
##KA
##280
Rom
GSE
180%
##.336
RTB
8/2010
1870
##Lu
CĐVC
##elles
##vang
Mư
##pia
##vena
##.183
##8.700
##linh
##RY
Dat
##%-30%
##khuyến
##đảng
9.2017
##buổi
##gues
khẩ
Kro
##Trang
##.629
##kéo
##liệt
##.883
##ONE
0,19
##121
##Iraq
NZ
914
20/10/2018
##.293
Canal
Ames
KTM
##VKS
748
1.115
CMA
##MEA
895
9.10
progress
BQ
Sora
##.889
##amide
4/2015.
##ravia
01/2016
##98%
NVCC
929
##hẳm
##icious
Tetsu
02/06/201
992
Atmos
SQ
##.645
##skin
##29.000
##nchengladbach
Abhisit
Bratislava
Breeze
Crưm
Deaura
Doraemon
Emanuel
Gemadept
Lubitz
Molniya
NVIDIA
Piotr
Touliver
Zaragoza
anthocyanin
fillet
Đăkđrinh
ĐNÁ
Euromonitor
Kinsey
QUÂN
Nitrat
Ponce
Geely
effectively
Violin
Daiwa
Tadic
##sara
##sông
MDGs
GENCO
Yusuf
Blanco
36-38
Gô
Arrow
XXIV
##235
##.878
##kid
Tap
##.851
##.597
23,2
##BPG
Cop
Antoni
Together
##body
+8
##.244
Đú
##lás
42/2017/
##175
launch
Chamber
##6/2019/
##TCS
solar
##.511
VTM
learn
Mahat
21.500
24.11
1.220
25/12/2017
23/10/2018
Beek
##late
18/6/2019
##.464
##pre
##igiworld
1,43
##OM
##uge
##.939
1,32
##avor
COO
Bis
kick
Ore
Oro
Nhù
##acked
Hajj
25.3
Khalil
##cie
Barros
18.500
723
1.085
biker
0.3
##SCO
Đè
##.018
LoC
Mallor
Diet
NTU
##France
##Bush
##CR
Tutto
##oshi
Savic
19-21
##oyle
##đời
783
##.772
Cush
##OI
##2015
Nolan
##GE
##ame
##.054
08/04/201
Trơ
##.763
MCH
dú
Bả
Gus
Vibe
20,1
##team
1913
##cong
##TTG
##tara
##.949
##7.800
2/2011
##.283
##1949
21-22
##5/2012/
Hoạn
Kalin
8.12
##úl
##Ri
Amoni
pep
Radame
gằn
AMR
##-117
836
##RWA
##app
##etto
##9/2015/
Fare
##vít
Ataturk
Chapman
HEINEKEN
Marquinho
Matvienko
Padrino
Québec
RikVip
SYNC
Swinburn
Wurtzbach
##Teshome
Huntington
Lehman
oversea
Ruslan
##pharco
##9/2008/
GoPro
processing
Senior
Vitara
Optimus
##20,000
Coppa
##501
10:30
Qúa
07/10/2019
Assam
Zalora
Caspi
nhứt
Hodeidah
Voòng
##479
##/01
plann
##nde
##quoc
Creta
728
##.697
Garai
Musl
##.248
Ital
Salim
0000
##87.000
Ngây
nhơn
Núp
MSF
user
APO
Duty
Stam
Silent
facilitate
##1.900
##.892
##.209
##mẹ
##189
Guin
Pray
##.067
##beo
Puka
##chko
15/9/2017
997
rose
##foods
Mayo
1.320
Emil
Mash
10-2013
GIC
Pavlo
##83.000
##/2019;
##.483
road
Pato
Milita
sur
Conan
##hama
Stepan
##rium
##thua
##.801
##come
14,0
##1996
##ành
##nee
Tunis
##.677
urge
##.114
##Phụng
##street
Pyro
##ollah
##culus
##ely
dl
##6,15
##UBG
##.321
FP
##5/2
##.961
Oak
Sci
##NEO
##raya
gừ
##.343
##.862
2.250
INC
4.11
##ape
##thăm
##AH
19.1
Beau
##.259
DAS
Ngán
Dơn
##ntil
10:1
Pelle
VEA
rón
BSI
##Ya
Pana
##hka
Abenomics
Bondarev
Commerz
GfK
Hussain
Indochine
Ludwig
Sabrina
Sembcorp
VnMedia
competition
paraquat
Maddison
Amcham
INSEE
Varela
territori
Butler
Cancer
recently
RFID
Draghi
Chuxing
##Dehli
Araq
CAJ
Nadia
2006-2007
Castle
Mclar
##.008
kimono
Naby
Piero
Py
21:00
Lazar
##rz
0,28%
##.184
HCN
31/10/2019
Dà
##.561
Topol
MNS
Shahar
advance
069
Sead
23,8
CLP
23/11/2017
##tsky
##bô
22/12/194
3.2019
Babylon
Damian
Gove
Irkuts
927
Benoi
##ơi
##1990
##taxi
##336
##IZ
##.238
25/09/201
11.2018
Fode
##301
##30,000
##.752
924
17.11
Ukr
##.571
36,5%
##.491
##cửa
##affeine
##ORA
##sum
Tanju
##.072
modern
1.040
22.1
##yak
MCU
Prem
##.618
Twins
Chố
21.2
##760
Peres
Noda
Cater
Risk
1.140
##Lab
##osh
##Duy
##DTNT
##.322
094
841
##.834
##.766
##EB
##.733
##Works
##yer
##Ngoại
##chọn
##Jones
ĐÔ
##lớp
##sẵn
Nora
##/40
##Cộng
##.215
Đãi
24/02/201
ILA
##giành
##yre
##.391
##vàng
##bles
##flo
Nex
RCS
##phá
Mato
##65.000
Curti
##tấn
791
##.113
BIO
##IMEX
HAN
##ARS
##.277
##.663
Scandinavia
##.972
906
Vằn
##tang
##xon
##.298
lũa
##tet
##1995
##acob
##ramine
##rossover
SDR
27/09/201
Lena
theme
069.696.5
Camphuchia
Hiroyuki
Lactalis
built
Hublot
Huesca
Litecoin
adidas
oxytoc
##pillar
IAAF
microgram
Ferreira
CRP
##yrena
09:30
Hemophilia
environmental
Solberg
what
xylanh
UBQG
03/11
Valerie
Bowie
Portman
Sendai
ĐNA
kios
##quangninh
Arnaul
##.093
Diop
##new
NBB
Narongs
Hac
khề
NPR
##estival
rén
##ilin
##133
Minor
##NTĐV
Orient
18.3
IKE
882
##kovic
##intra
8/1945
burger
##lisso
22/11/2017
Highland
1.1.2019
##.066
##rell
ghita
Nhọ
Forti
45,5
Kakao
HĐTC
Nimr
##camp
##tee
##168
living
##.415
phảm
##6.400
Nors
##ogen
##fat
Models
risk
##Queen
SJ
##1959
##nus
964
GK
856
Fei
##bab
##.107
##981
cool
027
##1/3/2015
31/08/201
##ĐC
TECH
##INE
##phù
##Thượng
##utaro
##Shi
VSLĐ
731
Hsu
Jes
##yuan
Stratfor
Match
941
Kens
##.929
Xám
##zumi
##.807
Kil
Mèn
##.105
tanin
##440
##ès
##IU
##Braxin
##nghiệp
##rising
25,8
core
##377
Hamidi
Pic
##679
##nhỏ
late
trỗ
##.147
Kota
##0/2016
Donov
Kami
##199
Gelexi
##kazu
MAKS
sovereign
ApartHotel
Helmand
Ilyushin
Murakami
Supranational
Thmây
aegypti
schedule
Irene
Aomori
FaceApp
Neptun
ultrabook
competitiveness
pledge
Suthep
Laurence
saponin
Compact
Pulse
niken
Batista
VietnamPost
Confed
results
Khampha
Haivl
Row
Erna
Blogger
HEAD
##.138
TTND
Matias
##ướm
Campus
Gunn
APSC
21/07/201
##integration
Strike
##.169
874
Nyong
Jebi
Mý
23.270
Yohan
128.000
28.3
Rok
##.082
##rite
##ais
Chát
##iba
##.312
CTN
30/9/2015
Adi
PTL
Satan
Thoi
##kW
fibro
##ushi
##599
enter
##llana
Gla
1.380
15.2
23,3
##atiso
Plate
1-7-2019
##386
0908
##books
##ưa
##coupon
Etienne
##169
884
##HQG
##others
OMO
##mát
VB
##.449
199.000
5/2009
thuôn
nhổn
##8.000
11/10/2018
days
##(
rum
##.662
##truong
##STNMT
TAB
##.921
##211
43,7
##khon
##Tiền
##BLC
SOC
##Lin
##nah
-2017
##.372
##.144
CAM
754
13.11
##lau
##ADS
##aghi
##ÁNG
##brand
Drai
##.814
chồ
##pl
##.208
##USA
##FSI
4,75
Bonsa
##aclo
Eki
TCCS
##.087
36,50
FCA
Truck
NEO
23.11
đí
729
##.583
09:5
##.897
28/09/201
IAF
Picture
1/2020.
##fra
vố
##Xô
Automotive
Bashkortostan
Benedict
Oncology
Retreat
initiative
Koreaboo
compost
netbook
Malware
khén
Ryder
Kaiser
niacin
Imagine
Powerball
labour
Value
XXIII
99,99%
Riệp
Element
Messages
xồ
##berger
noel
##ress
nghỉm
Rahim
côngtơ
Sentinel
Extra
##.262
inbox
SIPR
Metallic
Had
##.414
Benin
monitor
Nịnh
##ats
Baek
hem
##00.000
nine
Sie
25,2
##ebol
865
luộ
1/6/2018
##done
65-70
Defender
##lette
Az
##rix
dợ
##7/2019/
##117
##MATI
##hộp
1,62
Johnston
##sửa
##.951
##9.00
15-30%
##128
16/12/2016
spot
Zhen
724
##bua
##Tin
##.652
credit
Hakim
Monet
Sey
QHKT
LM
Wise
##nelli
Demo
Dol
APP
35,6
155.000
##DTU
pit
Markus
Korn
##tuần
##uca
Yee
Print
Kw
##.446
42,2
Vitas
Julien
##Nông
831
##vl
waste
store
VJA
Machar
20/05/201
##rygo
##vez
1.230
Nâ
##.742
Clare
46,5
##DB
##13.
##Jonny
858
NCAP
##-5-2013
##vien
##câu
Beng
Greene
07/08/201
01/04/201
##.249
##tol
##tuyến
HVS
1915
Josef
##cast
Kul
##.266
LLCT
EZ
##3/2010/
Downe
Coll
action
##oglu
8-2013
Ful
Trendi
##9/2017/
##4/2012/
##cáo
comp
Zee
##oxit
##hị
##.263
##.000-30.000
18/09/201
CHV
Dee
##alon
ju
JAS
##aipur
##.274
sandal
Launch
Massimil
##laudia
Arreaza
Boracay
Canadian
Dispatch
Friedrich
InBev
Return
Vathanaka
ambassador
boutique
cassette
megawatt
Baikal
KinderWorld
ăngten
Cinderell
Gardner
VĐTG
JAXA
Hayashi
Sidgwic
outbound
Livestream
Jiangsu
GoldView
Hicks
Chôl
1/1/2021
Bokova
Parly
ĐKKT
AWAC
##lenburg
##obain
Dresd
BAFTA
Thuyển
veston
79/2012/
01/2018
##.103
Zouma
general
##2/2019/
1.130
APF
##1.00
0,33%
Quneitra
##erga
facilit
##eel
Slavia
##.221
##lec
MPI
fit
Hakan
Ansar
1.680
KHI
Angels
##rái
Glas
##thoả
Bata
##ót
Spy
Neg
16/7/2019
LL
40.000.000
Tampa
0985
##VE
15/11/2013
##.701
##isto
##8,000
##.028
##Niles
1,21
944
##.771
26.500
MF
##hếch
23,4
##860
cosplay
##tics
lữa
Options
19/02/201
Phang
##.596
NET
##sina
##.079
##sler
##sys
add
Hoanh
rich
##love
##Iduna
stock
##.303
##images
##Design
##Nissan
##agos
##885
##.000-8.000
38-40
Flavi
##1991
Manche
7/2010
TTVH
LMI
##ầng
##TRI
Tamim
##hoi
##sir
trôm
##Tiago
##.602
##EPS
Hả
11/04/201
520.000
1,46
##br
2,45
##bê
##KHTC
CKC
Idea
eBank
Mứ
36,3
Maika
##rman
##akov
##.462
##16/2010/
##RK
##ÂU
##OTA
##saw
##nics
##orient
Gut
Nakata
##zzo
Vali
##hoe
Brende
##raine
1,69
##eke
##nderground
##Karrenbauer
Antalya
Claudecir
Iheanacho
Krishna
Mukherje
Paltrow
Saenuri
Stevie
regular
Hlaing
Multimedia
Picchu
Hanoitourist
Support
Kraft
Basque
etanol
Tweet
Sylva
Selling
UVTW
##enland
##.096
Vietsan
Poker
Plasma
##.739
Huong
##gren
Dias
37,2
##hom
TAT
Kahn
Belo
Creator
##uê
##oupé
##danang
Tiong
2008-2012
Youtuber
SPAL
Stage
##/9/2010
flight
Kandal
06/09/201
mỷ
Sậy
##khí
##-63
25/7/2019
Cabin
QD
##tran
##dim
##.575
1.330
##.006
##ird
17/5/2019
16/7/2018
##.313
Isabel
##tini
##enny
6,76%
Bioreactor
UBDN
Willis
Newman
##REX
##.873
Rươ
##you
Cath
##.226
##.576
871
##-700
TPO
26/09/201
12/4/2019
OJ
16.3
##film
Capita
936
1820
1850
40,2
know
23.500
Push
BF
##-006
##.631
##.281
##112
##isation
##VIET
684
913
Phen
##.959
Xộ
Haf
##.931
##quay
##reed
##visa
##Truiden
##technology
metal
Hag
##Lương
##TTXVN
Phạn
Jafar
Bed
Fr
##.817
##.704
##utopo
##.692
##-1962
Corn
##Em
Gad
##0.900
##9.600
##xỏn
CME
12-18
Mandel
##.946
##tiếng
##màu
Shang
##Bác
Cube
##.793
##bird
NEX
KE
##yk
CFM
##yal
01/8
UTV
10/6/2019
##him
##ssel
##.227
shot
##lbert
Ik
##tero
##.077
##hát
803
Tate
26,7
##GLTM
Arb
##Tất
##cine
##borough
Zal
##SKV
Pul
##solidarity
Grenfell
IDECAF
Niagara
Pashinya
figure
inverter
sharing
MSEAP
Batdongsan
Redoxy
benzoic
Meiji
Probi
Vinamed
##8/2009/
Forlan
whole
guest
Rouge
Henness
Berkel
Nozz
Doyle
Bitel
xắp
32,2
##upita
Factory
vưởng
Basra
sác
Molina
product
##.707
Buô
Emart
1,38
##cây
Cueva
##Protection
##-97
regulation
Cloramin
##pos
Path
Niang
Thiềm
3.750
##-60.000
Spo
##.827
##Maliki
WORLD
lúm
Mug
Cọp
##yna
##.967
##60,000
##.269
1483
##31.000
Lyn
19,8%
Khue
BCQG
lãn
##cl
1886
28,6
##.359
##.671
7.11
Yamal
22/07/201
##181
Suning
##ãy
Arg
##.869
29/05/201
0901
##òn
1022
##vintage
Balon
##20.000
##dinh
390.000
##ndra
Tio
##.039
##Tư
##log
##.081
Sap
Flamen
##Daily
##trắng
Hap
##xét
##.489
##matsu
Adil
4/2020
696
##uj
##Yong
##./.
Dunn
##ians
Mok
##Tuyên
##uzzi
##.963
##3.900
Nhă
##ups
13/02/201
RSV
##24.000
##icki
RL
##868
Maung
##.319
##.515
Dunga
Kroe
##.796
##iane
##-2.000
##pel
08/08/201
minor
Riga
Horn
22,1
##indie
Mayor
##.136
##.261
##QLG
Shinichi
##onas
5.11
Lund
##13.000
##oóc
##MX
Ul
AE
gỏ
JR
##kun
Giant
MET
##Gb
Friend
540.000
Jelen
##urs
Cold
##140
Holt
Cut
Spe
rù
fb
Nhũ
OF
36,35
##pylori
Attrage
Azevedo
Gatwick
Gerasimov
Gremio
Lortholary
Nerazzurr
UNCTAD
Ulreic
graffiti
Address
Battery
VIAGS
Charmvit
popular
##lade
23/02/201
Aliyev
##-92
Mimosa
Phanom
Ib
Oita
Kramp
Gardenia
Lively
##hõm
Asama
Vinasat
##igali
Bibo
CMG
50-9
0,41%
Ramirez
AOL
##Lịch
PU
Petya
statin
##MKG
APK
Rục
Coach
185.000
Atl
Ale
Damen
AGO
##ESR
##.974
11.600
Abadi
##TCNS
662
##fein
dock
vov
##lva
1883
##.651
##CSVC
Stey
13/11/2017
diẹ
##qing
Eyes
##ility
đễ
ĐCS
97.000
Abdulrah
##.492
##fei
16/04/201
12/14
##23.000
Deli
dan
VHG
Shima
Wide
##zini
Banyan
35,8%
Select
CSC
##Huy
QCN
##amir
26,4
Luz
Popov
##eas
##.118
##.078
Pula
848
##5.600
##yakov
dịnh
Micron
##Huỳnh
##.223
##dễ
FAST
##mob
##.348
761
Yuji
##VNN
##TF
ZF
##.204
Sab
UBNDTP
##Cheek
##IX
##tail
##4/2014/
##.056
##inder
##phía
##Hoàn
Tể
##meter
Inteco
##.902
##FW
##shik
##.073
1.310
Odis
##.479
iP
##58.000
##.7.2016
##adin
Aerospa
##4/2007/
##7/2007/
-13
##girl
##UI
Lombard
##afa
Caesar
##apo
Loftus
##husband
##illennium
Ayrault
Lahore
Mauritania
Skrtel
Tbilisi
baotintuc
González
Mihail
Soccer
Tupolev
Hawkins
Keppel
Chiangrai
Shipping
coordinate
flood
Olympiacos
16:30
Komodo
Neft
atisô
##avenue
2021-2022
Kingsman
Xuôi
##Odoi
##fighter
##wicz
Samut
Aveo
webOS
TTIP
Parisien
##iran
phishing
Isao
##770
##izer
Nikit
Pheo
quắm
Fosu
01/06/201
##luca
##sio
28/8/2018
Burns
##Fendi
##atuk
Rua
Parson
12.800
Vâu
perform
ôsin
883
##Tết
##mok
##El
Arkad
Omni
##hos
##0/2017
-14
huê
Poo
##BO
Violet
##Bar
hard
Nikolay
##72.000
##hoo
triglycerid
200-400
##ological
SUN
##6,000
##FY
##8/3/2014
8.10
soul
gàn
##.607
0,22
##kla
AFA
1,83
Aldri
Rể
FTM
##tree
Inno
Nasr
Barbie
##its
Lomonos
##UA
11/2019.
27,3
3,99
##.826
##tín
##dry
Pars
##.061
Oba
dancer
##?
##Google
##Galaxy
Simba
##kêu
Haus
##Art
SSO
vấnđề
##comBank
##.791
##TBD
cụp
##.700.000
REM
Ori
Esthe
##oing
##.732
pao
##28.000
WAN
Oka
Bashir
##real
10-14
##-73
50,000
##.758
silicone
##5.400
Dur
##406
##saba
##.955
FIR
CIO
PEN
##lone
0988
##commerce
##54.000
15:2
##310
##zures
Scha
disco
##SON
##Sat
Ascend
##INVEST
##Yosemite
Celebrit
Corriere
Drukpa
Faghani
Izvestia
Louboutin
NESCAF
Vinapaco
Zarubezh
Mousavi
gelatin
070-38
STVV
Federation
Taipei
hamburger
MDIS
history
Acura
Blackburn
Rappler
Petroleum
##hườm
Benelli
Luciano
Coqueli
Officetel
documents
following
IHG
Ellie
##fore
Fiin
11.700
18:30
Phồng
PFA
Nacion
NSCL
Saphir
Weigl
CVN
##suco
108/2014/
##tica
##/4/1975
Holy
Dor
##ussier
Dens
Bươu
Midland
##eja
Orbis
Drilling
##erie
16/2015/
##zca
##stance
##eux
Roxa
25.1
##yana
##anos
30/4/2015
25,6
##.094
Burn
##nter
Pei
##arissa
13/6/2019
Gunma
Yim
##lá
oxide
HPN
Zip
3.12
26.1
##VAC
##tama
1889
Jama
12/2019.
Rốm
Giulian
##POS
27.1
##.559
Speaker
##stay
24,2
##0.700
##sworth
vồn
Spin
9.400
0,07
organise
TLĐ
7.2019
##DES
##cture
##leb
20/8/2018
Fil
45+1
African
##.724
fu
##dding
mồn
Sari
29-31
##.853
##Ko
##.691
##.614
##228
##Washington
##Pace
##Lúc
##Cuộc
##Vận
##vne
##uno
##idge
##Point
##uối
Georgiev
##chiếm
698
##ledge
##9.200
##.461
Hyosun
Ivo
##.041
##pes
##/140
xoàn
##.239
##hanh
##.083
MIX
802
Kors
Nari
##rain
TCP
##diện
##scale
23.6
##9/9/2017
##orre
##nette
16/09/201
##.958
##.502
10/09/201
His
##POT
19.11
##.389
Giỏ
Zlat
36,7
Thé
1.285
##lof
##.917
##.411
Bien
René
##elize
##hound
Corporate
PhóThủtướng
Stonehenge
VBCSD
Viettinbank
Wojcicki
bilirubin
bowling
dispute
Agassi
Fischer
Synology
khịa
netizen
Aptech
Outside
##tancur
Jaysh
Promotion
Stinger
##THA
Kingsley
Rough
Shahrul
AUX
oversize
Pinto
Luigi
##iwaco
hổn
former
Wojciech
flag
Flip
200-250
##rbatov
01/7/2019
0,29%
VINASAT
##úng
Kaabi
UY
3.11
Realty
##quez
Aceh
39/2014/
23/7/2019
Doris
##mper
villas
Bored
##green
Anand
Have
##.297
Mirale
12.600
carry
Chép
863
Mask
##.991
Pirate
Sting
15/1/2018
##8,35
1882
##uster
##9/8/2019
##.403
##ION
##riving
##.957
##4.0
##.705
heart
##fner
##RB
27/05/201
Tonga
##959
DVK
Tadamo
27,7
Piper
Jimmi
Bei
Kick
##.749
##.043
3,25
932
6666
##1101
##.904
##.621
Jessi
HDC
Date
##mec
##sma
Mod
Petrov
VINH
Rổ
Was
20/11/2017
##.116
##/1.000
Shil
SOE
Willem
##lav
##itt
##yuk
##ợi
Katrin
Aldo
902
##Sabah
##Check
##phút
##.589
##Dũng
##Road
##1.2
##94.000
##She
##090
##grad
Strait
##1100
##.535
##arby
Spot
##.032
##mey
29,5%
wi
##.029
kít
##.484
##ênh
Abedi
wide
Boat
xán
10/05/201
17/05/201
##CHAM
##byte
23.10
Bakar
##.637
720.000
##IR
##9/2012/
Frederic
##.264
##1/1/2018
1/2/2017
Reo
37,6
##carb
##.133
##Game
##.284
09:3
ĐU
993
##phóng
CZ
Competi
EBITDA
Fucoidan
Gatsby
Gossip
Michelangelo
Overseas
Sojitz
apatit
manufacturing
Bombardier
Amalfi
Gazeta
BRAV
Kelvin
Shwe
##FUSO
coordination
Gaulois
Fuchs
Teddy
##WACO
mayonnaise
Salvatore
Arcade
Storage
highlighted
VUFO
Vassily
Camaro
Neural
Sailing
Vicky
Khạnh
Coleen
##Shabab
1,2,3
stage
##ANA
##rod
Button
974
Kofi
158/2013/
Mệ
72/2013/
Foxx
Heus
Hanjin
són
Plong
Vnews
Route
Edo
Sinope
##3.800
56/2017/
fruit
nhõ
Veng
##-89
##errey
lảnh
##,10%
Into
Jab
##.011
##1/2009/
Cun
##ướp
##hìa
Xị
2,26
2049
##.693
##3.600
lum
CKI
##299
##eka
797
##.661
1,53
##obe
10/03/201
12.12
Rọ
Pian
11.10
toét
##5/2015/
1860
##masa
Lil
9.700
07/01/201
GCI
trading
lag
-2019
01/5
1,64
##520
Nị
##.916
04/09/201
##PRO
MBI
DTS
89.000
##.164
0623
FIDE
##ider
##seok
##etano
##.734
##ound
Xén
Neto
##247
##aire
Funk
##nica
2/2015.
##.913
Artem
Send
##turbo
##Heinz
##050
##Fatta
##WHO
##thân
##Stone
##Salle
##Mặt
DDI
buy
15:3
ICS
##ids
##Móng
##.048
21.12
##phố
Kash
rủn
17/04/201
##ĐDC
Chill
##naga
##.499
Dayana
01/12
Kesha
much
VIT
1/11/2017
30.1
Schi
##.494
##china
27.11
SMC
##ệnh
##info
Nashe
##miền
##enor
##eun
Thiêng
near
##bru
##/03/2015
Vela
##êm
##CQG
1.020
##.015
##lund
Advisor
1,47
Mossad
Columbus
Danlait
Escobar
Insurance
Olympus
Shakti
Suvarnab
botox
couture
forecast
impact
message
return
Fruit
Merlion
Montoya
Oswald
PureView
Cycle
Vallejo
GWIS
Ensure
Munoz
##qdnd
06638
Nài
abroad
Garner
Supreme
##Nahyan
Police
36,75
FMCG
Shevchenko
Pedia
Quartz
Luxor
Galileo
Diario
Psaki
Kinder
Côte
96/2014/
Horse
Sodium
supporting
##tem
Vietin
Zumwalt
Mgar
108.000
##1950
Gtel
Charter
Kojima
Goodi
Henrik
10-17
Syafi
##ẫu
Linde
##tano
##389
##ũn
##-56
Danish
##ege
QLNN
##SMC
Jaber
TFT
14/04/201
Lẻ
##yad
##nol
##mil
##nice
Rei
##kina
16/12/2018
light
##7,45
##.352
##agua
1,87
Thiếp
Seal
Yon
##YO
##lus
##utton
Khà
VPS
family
##rani
##RM
founder
##options
##ious
Finn
##RFA
spoke
15/10/2019
Thal
##Canary
Lada
##napp
##MISS
Priv
Jeanne
3.260
##rita
##-1981
893
Dora
19.4
Robinho
##115
##ouille
ngàythứ
##isha
##.108
##.260.000
Tomo
##/70
fire
Sigma
##rbil
##urk
##7,15
##rama
Saw
Meko
14:3
Yorke
##đoạn
##LAC
##www
##Antey
##CERT
0906
##sei
##.051
Sọ
##đài
Taki
##Hậu
1,88
##archer
##1/63
chặ
Kursk
Prana
Welch
##.816
##eisha
##.987
##.506
XU
##3.300
##hati
Zub
Enric
MAP
891
Coral
##TCTC
##kol
##ril
##ulation
##668
##lian
Lot
hó
##Blue
lạo
##4/2015/
##.137
##74/2013/
##8.100
##mùa
##Rập
14:2
##Ku
09:4
layer
Borge
NR
Thự
##IB
##.809
Grim
sneaker
tien
Avigdor
DARPA
Evergrande
FGFA
Guevara
HOCMAI
HoloLens
Incredible
THQCT
Thunberg
acoustic
neutron
CENLAND
Damien
Popular
Official
Melodia
lobby
Rosler
Wiesen
offroad
GĐĐH
trojan
Pushkin
JYP
Nitơ
Rossiya
90+5
Hobbit
38,4
Xing
26,6
Dato
SHTP
115/2015/
Mulat
##.983
11:02
##Ly
Creation
250-300
VATO
Cost
CVE
##hộ
thuộm
##71.000
##6/4/2019
SMU
57/2018/
29/12/2015
+6
##For
1.226
CRM
citri
Rơm
2,19
é
22.300
24/05/201
Dominik
0243
Mans
39,9
##giả
1.430
##.858
khệ
##.075
1/2020
stereo
##hiệt
Thongsava
HDI
Harman
##Lolita
white
29-30
##.202
Martín
Spartan
1,99
steel
##ởng
##.273
Shiva
##1200
37,7
Makarov
##-10-2019
##.237
##ACN
ETH
Dray
##.031
##.953
41,8
##eno
Latina
29,8
##.337
##established
Qiu
##ớm
Compa
##gol
đườ
##356
01/7
Georges
30/05/201
SIA
92.000
Giga
##-30%
##anny
##kkei
##TNN
##TIN
Nawa
##747
DEH
##President
##Pakistan
18.11
##sớm
##Vậy
##rais
4/1/2019
28/04/201
26,2
##HEO
##.944
1.010
Holi
Takehik
##-3%
Kir
##946
##tap
Aum
##chấp
move
Tut
##Chung
##27.000
##1963
##.100.000
##9/63
35,4
##GBC
##ives
18001
SRC
08/02/201
##-99
##vũ
##.723
Heroin
##ẳn
Bike
give
##.302
Idris
Mariana
##talk
Giu
##chữa
Toru
##91.000
18.10
##.206
Grass
##180
##7/2012/
##rahman
18-24
09/02/201
kẹ
2,5-3
Unp
Luồn
1.560
CNQSD
##899
Animation
Budweiser
Coppola
EVNHANOI
Entrepreneur
Favourite
HACINCO
Instant
Jeolla
Kelanta
NASDAQ
Ngoisao
Phnôm
Youssef
Hatoyama
Reserve
Sinaloa
Shirley
Citroen
Panaad
preview
Barents
infonet
Souphanouvong
Iberia
graphene
average
Harbor
Bangalor
Hidden
##3/2011/
laodong
XTĐT
LAS
Moana
27.12
##fast
Jihad
Gaya
Saeed
HDTV
17/03/201
Cyril
##tất
LPB
13:30
##ewitt
SVR
phoma
43,5
Tamara
46/2014/
tiế
Lui
Slide
Buck
##.837
Scavi
nốc
##.762
5/6/2019
##AZ
Tsai
##Leslie
pitch
soài
##mate
##-007
##hâm
right
##.976
Erin
40-60%
25/7/2018
0,17
SNG
Vance
GOLD
26.12
##uche
##,100,000
15/6/2017
11/3/2019
Thoảng
25/04/201
##sty
##xiang
##.176
25,9%
##.493
##úi
19-2017
90-95
Khă
##.172
##.711
Origin
Tana
##1/3/2018
2222
##-2021
##Mensah
Kap
##ipov
##ấ
Els
##625
23,6%
34,4
48,5
DSM
Ando
##.086
##dụng
Chain
##kang
Uma
Content
##vita
##sala
##gency
Mol
837
Selen
##seen
Astori
Hau
##TATC
26,9
produce
##Trực
33,8
##Talk
##thừa
mmol
brand
##Chị
Goldberg
##.542
##siêu
5/2014.
##197
##lời
07/02/201
1232
##.307
##.844
Sev
##.024
46,2
Arde
KNK
##dài
DAG
##888
nhạn
NU
##cát
##uận
Bend
##.998
DCI
Nel
##herda
##Dung
22/05/201
##DCM
033
03/04/201
Huan
##7.100
##.709
##Phong
01/2017
##136
##.727
972
##8/2019/
##-78
##hold
Phùn
##2/1
##87-10
##amchatka
CCTTHC
Gerhard
GoldSeason
Qureshi
Ramaphosa
Swarovski
Toledo
Tuanzebe
Ubolratana
gluten
morning
mountain
practical
Jacqueline
Nakamoto
84-0650-38
Almeria
Blasio
Eckard
beatbox
Animal
Mathew
Quèn
Kobani
Wanzhou
Material
Bernardino
Automobile
Malmi
highest
Megastar
INTO
eight
TCHC
Glazer
Matrix
Circuit
Other
Triip
OPC
ACFTA
2020-2030
##PEA
976
FCN
01/9
Academic
Thiet
HAT
Murano
49/2017/
##terra
Prey
##QPAN
##fly
01/2019
CIR
Gale
##DTC
sửdụng
Move
DRAM
Maktoum
##hood
BKHĐT
29/2012/
10.300
##6.900
##phin
Lăm
Fam
##MSDF
##.000-6.000
29.1
PCX
1.070
15/1/2019
Nọi
Nicky
##/47
##9.7
##56.000
122.000
Teodoro
##QLNT
##977
12/7/2019
773
##pura
SDS
##ilov
##ARC
KVA
roll
Dau
21/09/201
22.11
##2,7
Murci
##RJ
Kura
872
##js
0981
SPT
-2021
##ioso
Salad
##coste
Cardo
ceramic
Maga
Zot
##.279
##arvin
##onica
##OH
##navy
3,15
##153
0986
24,1
##arm
Career
##enburg
##riêng
##tina
Ira
Nobu
Admiralt
##zoo
1.312
##bei
##mur
##”.
Brussel
##amba
##.757
##BANK
##-190
##joy
##Matic
##liệu
Vieir
Amer
Danci
##.150.000
##636
Pru
Stay
Chlo
22.12
##.942
##orio
030
##7/3/2019
CUV
##/1944
##ăk
##PQ
##uyện
63,5
##.823
Roo
##west
BOD
Dimon
##-183
##khoản
##shar
##oats
##web
##789
##134
ré
##9.800
Viola
##nagan
##arts
##1992
##index
##tsch
22/09/201
Elysée
Past
Trax
##bir
##inase
Mirai
28.5
3.500.000
excel
##.635
##ONG
##.522
CIT
110,5
##dhra
Crypto
##699
KCC
got
10/2008
vaccin
Comm
Ayu
Avenger
##Hee
Vine
Aymeri
Bizweb
Cibulkov
EverRich
Guedes
Maitland
Nineveh
Shiseido
Similac
VISSAN
previous
sulfur
tomboy
Horasis
Baikon
Kobane
Rusviet
Vantage
Velvet
Sepang
##cycle
Before
clear
profit
Cheonan
decade
uPVC
Ctrl
Bundes
NĐNC
Ultimate
Ashore
Lozan
Genius
vlogger
Xiong
##leigh
Sio
nhắt
Lynk
Giants
##trí
SEVT
speak
Tiju
Lwin
Manny
##uber
Portrait
fi
0,45%
Swe
language
DQS
##Ne
##Carlton
SMW
Hề
Globo
##ndelli
TED
Bonnie
gú
##liang
Polyeste
##.308
##seco
31.1
20/04/201
textile
##PK
Rupia
##kot
##VV
KQXSM
##730
Sling
##asse
Gallard
27.5
##/2018:
OIC
##.981
##.407
##866
Hikar
Fabric
LAI
1547
Limber
##RCC
3829
##.544
Seas
ZD
Nut
##-110
##ingen
Jese
##mak
Leila
Shoe
##.702
1,82
16:3
Hold
##NĐK
##DY
Semi
Trek
##1966
##kkone
39,7
0.4
##John
Eat
##kis
DPA
##EO
##Top
Hachi
##-600
Navi
Fleming
##joo
##2.100
30,2
2,18
Pesh
17.3
##sher
##214
Puri
1,25%
27/04/201
##Drive
##take
##ịp
##theme
##tuyen
##iles
Gelor
869
##Tiếng
Nagar
0943
rada
ASA
##MIT
##76.000
##.971
##otboy
##cộng
##mere
2016/17
##74.000
##paid
##vay
Welle
Grigory
Bú
1.050.000
##6/2012/
7/2009
##.788
Zon
##pf
##đau
##-2-2012
##Za
Idah
Pel
Lùn
2017/2018
##ersk
##1993
chậ
##mitr
##khar
##stle
##1958
##.754
##arro
TAS
41,3
ÔngNguyễn
##ement
##rath
electron
##Palembang
0763.857.90
Dnipro
Dunkirk
Ecolodge
Grushko
Lustig
Maverick
NhacCuaTui
SHINee
Shenzhen
Suicide
Vinacafé
Yamashita
association
endorphin
Afganis
Meranti
Wichit
Aleksandar
Creek
04:30
Caplet
HTML
Domingo
Mehdi
folk
Minute
glutathione
Guido
Vinawaco
Langbiang
Knock
Vrsal
Kungfu
03/2015/
Mentor
Ritz
allow
GIAO
Razer
Reaper
Quattro
##today
IPhone
GACP
##Ahrar
##kami
##enlo
Barrow
Saraj
185/2013/
Barty
##PLUS
tậm
Jackman
##miđan
##olin
##98.000
Toco
Forward
24,6
##ehner
Smithsonian
##moet
0,34%
1.275
28/2/2017
##.289
Burni
14.400
097
2,35
38/2019/
Giãn
##scher
Duẫn
21.11
28.1
##chem
1776
##nino
113.000
##iyeh
Ellis
##1977
##HU
Arun
Self
31/2013/
##.399
Wilde
##.952
boom
27.10
Nải
##7.700
##LI
42,6
Dru
RTA
##now
##ombo
##689
lead
Xian
##.026
Agni
HUB
##mbu
Sampha
Jensen
Hunts
##1.7
Combe
TNN
Cos
##.924
##amous
##2.300
##.408
##rith
##ẳm
Uli
##.996
##UR
7.100
WH
điêze
##BĐ
##.505
##zaki
##ead
VE
##.538
054
##410
##898
842
Ride
052
##ereric
Eze
##.928
Bold
##bie
##pic
##.131
##cons
24,8%
##dina
6,99
Shake
##Saudi
##thảo
##Sense
-2015
##GHz
##4.100
mèm
##CAV
##ibo
Traveler
1/5/2018
##ined
##540
##cháu
##oj
25-26
tannin
09/04/201
##zha
KPL
Adha
Nicos
0916
##855
##vé
39,6
24,8
##lv
Reach
##chứa
2,65
##-124
Khuân
##zô
##ậ
##6.100
##040
##416
##sage
##.903
Sonia
37,1
VGT
Riek
Bug
##enstein
04/02/201
Nas
feed
36,38
Rudsko
Sumi
find
##.526
chã
Stre
##sachev
##Là
điẹ
##rek
Organ
15/05/201
Roòn
Ketamin
Toh
##983
Ahmadinejad
Beauties
CABIS
Dagestan
Hurriyet
Illustrated
Liquid
MANPAD
Montgomer
Naftoga
Rammasun
Rockefeller
Suckhoedoisong
Takumi
Tumblr
cruise
Authority
Beetle
Mondelez
Purwo
Vicostone
Fossil
TAĐP
Gasquet
fitness
biotin
FiberV
foundation
EcoHome
Stanislav
##Falih
BSCKII
Sukhot
Vincenz
AEK
BRCA
Inui
Vincity
ODM
Levine
58,7
##ĐK
hooc
Opta
Liệp
91/2015/
Commerce
Azur
Nghiền
HNC
Leung
1991-199
##adar
##8/2
##wagon
##Sam
Shee
FINA
Movies
Exim
summit
Leto
##glio
27/8/2019
Kiko
Ambient
Hù
ef
CSMT
##rib
##1/10/2016
##chí
33/2017/
149.000
Faber
##tou
2.550
##exco
Agut
Bissau
530.000
80-85
35,3
Awa
TTU
Fong
##oge
NTN
ok
Rena
30-32
##kam
##560
PGM
2,05
##.994
##ARD
STI
Chũ
OR
##eca
50.000-
##8.900
Lế
Shaun
##pil
##adashi
##.102
Soho
##.007
01/08/201
15/7/2018
##stat
Disk
1.980
##SR
2.350
##.229
##beau
##sư
Ascot
31,2
12/04/201
##cái
Kup
##agra
##gold
##FO
Deng
Stripe
06/08/201
##cem
AIT
##Dong
##.047
##GTĐT
##78.000
Slave
12/2013.
Vivas
##ởm
##8.3
Hale
02/8
1858
##7,000
##gọi
##num
Phôn
2,25%
##Finance
##xing
36,52
##biên
##Điểm
##lev
7/2014.
Zia
##.923
Pông
##usta
Aber
##eil
Jara
##rúc
KSB
##khám
Asan
Biang
Wra
Vitol
##scar
40,6
##kata
Eln
Vun
Samara
Zumba
VY
##hoc
##5/2011/
##lion
##iX
##.782
push
##IFA
Mare
Mitsu
28.10
28/05/201
897
##123
ATV
Tul
##SBU
##107
##FDA
##114
##ders
##naire
##/8/2008
Kyeong
11/2008
##025
Doviz
BlueScope
Dengvaxia
KTQD
Kamalvandi
Kendrick
Marchisio
Mondulkiri
Napalm
Naples
Ossetia
Phenikaa
Schurrle
Skriver
Swanepoel
Symbian
Whatsapp
actiso
Aquafina
renewable
JACK
Yannick
Berhad
Megapixel
organization
Luxstay
Zaharie
SXSH
Ingrid
microgam
Jianlin
Malmo
Sajid
Cabaye
##aparazzi
Crom
##-69
MBDA
Raqa
SonKim
Sawyer
Javid
DKT
melamine
Investors
Mansions
Phím
setting
07/2017/
Majesti
02/2016/
đễnh
Kislyak
Records
vẹm
Nava
deepen
11:10
bill
Ctr
Shre
láp
register
0,65%
Liềng
27.500
##ddi
BBB
##.729
54/2017/
##rb
1.660
##lley
aureus
##ệc
Sohu
Ibn
##ockey
Vú
Fix
Khốt
25.2
Ních
Cesare
Sle
Rocha
0917
53,59
PSD
08/09/201
1.325
##maria
Traini
giăm
NTC
19.500
##5,25
##piste
27,9
Aquama
##.126
feature
##366
##lun
##ngdong
Charle
24.10
##.207
10/04/201
##.287
Mnet
081
17/07/2019
14/08/201
Gọ
Bea
Saha
Mồi
##zade
##elman
##iao
Dos
##000
HSV
##uốn
##uis
19.12
##endo
##lk
8/2008
Frans
##.914
150,000
##.186
Marty
Phệ
1,22
##eadership
##.000-7.000
08/07/201
range
##JSC
Anis
##-171
Koichi
##bơ
18/04/201
đăc
liện
SMB
##ACE
Brosna
1.460
##elho
##Arsenal
##tube
##polis
Foo
Aka
04/05/201
01/09/201
##miya
##IGA
Epi
Ott
##sium
Capitan
6,75
Homo
21/05/201
##42.000
##TDH
Jer
Saba
##919
##Tel
36,4
mad
##881
##Scan
##160
##/45
ING
##.601
##.468
##628
##.784
25,7
KVT
Fog
RGB
ưỡn
##ểnh
##kiko
##bước
trũ
##ede
Koran
##phapluat
Castel
DHT
chằn
##olympic
adapt
SINGAPORE
##Bishkek
Crouch
Everything
Hangouts
Mulvane
NFSC
Penthouse
Representative
Samsora
Scaloni
Scientist
Takahashi
Tallinn
Vocarimex
definition
equipment
Fukada
Merrill
Xayabur
##vietnamairlines
regard
course
Oku
VinTa
Vihear
EWEC
Convertible
##FM
Cosmetics
61-12
##Dominique
Natale
IMX
##habib
03/2017/
01/2016/
Maid
Environment
rights
##itz
Fowler
mằn
19/04/201
##ulf
12:30
Camb
Basico
Miles
##KK
Trungnam
Vạt
30/30
1.340
JX
##dir
Racer
15.600
##.943
6/2009
Sờ
Install
##eve
ITO
Bator
127.000
##ourtney
##yte
Gotz
Malaya
##CIF
Savi
##.806
##chun
17/12/2014
##ịu
30.3
17/06/2019
##QC
1884
30,8
Ryota
##Tri
Schwe
semi
Kirill
##oIP
Ass
##VM
##onda
20.500
##Hapromart
##39.000
due
2018/2019.
##.016
Gyu
Ballad
##chết
##ube
##Han
##ONN
##/1917
Nín
##hansi
Kèn
Pade
hec
##truy
NUS
0987
modul
0976
##spec
##/39
##nals
Wit
Bara
##lita
##giang
0984
Mơn
##slan
##okeh
##HQ
##loc
20,000
##.0.1
##sbury
Kinoshi
Jude
##lack
##raven
WI
SOL
goal
##data
38,7
Barret
##1/1/2019
##6/2015/
##zman
choẹ
##rba
112,5
VAA
##.978
##ère
Vờ
10/12/2015
##chở
AEB
##AIDS
Aza
##171
##GROUP
Suphana
##xơn
##thuốc
36,60
ằ
##onen
HPA
##Lực
36,65
##roa
##Free
##gis
##0,44%
8/2009
##vinh
##Baggio
##sắp
0162
vtv
##.044
Valeri
##290
Muô
##LX
less
##hiếc
##sian
##ential
NEA
Nasir
achieve
Dó
27,4
0,06
##ops
##thôn
Mik
1037
CTĐT
route
##390
##llem
##ompanies
05:30
Ayutthaya
Ebbing
Ecclestone
GLONASS
Hodgkin
Kilaue
Koecher
Scorsese
Terminator
Thamsatchana
Yudhoyono
treasure
LEGO
Nigieri
SERIE
outcomes
Keyboard
Ulchi
Hiroshige
Gionee
Wagon
Tomomi
Aspen
TDĐKXDĐSVH
Clinical
Matiz
Biathlon
accord
Kashima
fishing
NLTS
##strogen
Nafiq
##ôm
season
TNTX
##demitsu
Imam
##jico
##best
##lander
##.613
##ducanh
195.000
0,37%
Malala
PSC
17.600
##QU
Gladbach
satin
Ned
##5,85
Iso
Mế
##wazi
Egg
Scooter
##HV
99,9
AEM
##ÔI
##.518
Yokosu
##Jitsu
Colon
##%-10%
32,4
##Ab
##zada
67,5
##CG
##TKBT
liễn
Cove
851
16/5/2017
Pim
Mayon
##799
Lăn
Akh
##/1929
##ache
##đu
Kob
SRI
##olas
##.684
Lia
30/8/2017
Amon
##acin
##HG
##oshihiko
##IDA
##oub
##nig
2,55
##ulo
nhón
Hira
##Chiến
##Marie
##eongju
LAB
XHTD
##.933
organis
##1/2011/
##kok
came
##yê
##0.0
##dov
##Ver
##LSH
1/12/2016
##ebe
SCAD
##teiner
##emo
##.257
nhít
Grabar
Shing
##-66
##.059
##rmand
Harish
34,3
##CSS
Hera
##lix
Petit
Bec
##ardi
25,4
##229
##8.300
1,84
##TKV
##Etienne
##Challenge
##Viễn
##đỏ
##FAR
5,75
Mobilit
113,0
##dow
##-114
##sone
Blonde
Prima
##.167
Sign
Conrad
35,2
Reim
20-21
##ylus
BVS
##eyer
##bec
BO
2-2012
##hart
953
peroxid
##LAS
##Giang
##-2024
Jardine
Tol
##-111
18.12
Dẻ
##sava
Engel
mão
##84.000
##lien
##68.000
APA
24-25
##601
##6.5
##tạm
FSI
23,1
##vợ
##rawat
##.291
quot
bike
Logistic
##oulibaly
Sleep
##possible
CSSKSS
DOANH
Hermès
Honolulu
Hutchison
Minneapolis
PVGas
Soldado
Viwasupco
telomer
Aerobic
Sêrêpốk
TOPICA
Antivirus
VPMilk
Clayton
Hennessey
ministry
Garuda
medium
Danviet
Romario
sign
microUSB
GTVL
Reddy
ngoải
Angus
##IIE
##mata
HCKT
Jedda
Benti
MGM
Peabo
ANND
USIS
Mathes
Remy
Better
##awut
Tahit
##ddick
1836
0,35
88/2014/
Friso
32,8
plo
Oắc
PVFI
2.150
##tria
##oin
Pinc
Hato
affect
Jasper
Semen
ethn
##.000-2.000
Cad
Vico
TCTN
Pix
##.547
Years
Gentil
948
Cage
##rf
Brahim
Oleksandr
##/55
##Whiteley
41,9
CTX
10.600
97,5%
##.813
Designer
Chel
##iken
Aba
05/04/201
AIS
Nhím
styl
Daw
Gaspar
LSE
Zel
Kron
##wald
Parej
khắn
30/06/201
8/2014.
##3.400
UNIS
Devil
KTT
Chew
priority
##Luc
trộ
union
Dựán
##CAGR
##QLN
##lơ
Saran
2,76
##Obama
##lorua
##klas
##.402
##yung
##pex
##olph
##rdo
41,7
##VMH
Kute
##yew
##.127
HKH
##Học
Jag
Zayn
11-17
Lilian
##away
Vlad
##llet
##assa
24.12
##960
7.12
1897
ling
13.12
Vive
##frame
##Argentina
##Séc
26/04/201
##Quá
##khắc
##nhờ
##TĐR
7/5/2019
-300
##nest
##fax
##shimura
eco
5008
##raz
1/3/2018
13/04/201
Zeng
##Cát
##force
1896
38,2
978
Bower
##hot
12.200
##cept
Dalian
Motta
Sura
Dé
SHN
##1/3/2011
##efons
Hên
Hani
1.510
##oso
Prens
hosti
##268
CCI
##garden
##gkham
##Soft
##9.100
Maker
2,27
Sườn
4,25
Bohemia
thừ
##mento
huý
23,9
##sdale
04/06/201
##340101
Yorker
##oastal
fight
##oyo
##.819
##hoahocdoisong
Yathot
##HKPĐ
##Holcim
Guajardo
Hilfiger
Impact
Jawaharla
Lysagh
Sciglio
Syahmi
bellydance
budget
efficiency
opioid
procedure
quercetin
Heaven
IMEI
Palacio
Aruba
Hydrogen
Roundup
Wilkins
AirBlade
Fatima
unique
naked
proposed
Mackay
locality
Gadhafi
iờ
Moritz
64.385
##IPA
Chổi
Breaking
catalog
Parente
Molly
Ruble
Trevor
Eddy
Gatlin
Parasite
1,98
38295
-17
Steiner
Verstap
150-250
Monday
Lún
Newport
Azi
Phuông
Ild
Eliot
0,46%
39,3
28/2/2018
2009-2019
NTĐT
Beasts
13.600
APAC
##:15
lãnhđạo
2008-2013
khuyếc
##ommel
Chicken
##utter
3,45
Xùa
Debi
##kou
Cro
Alena
Supra
GG
0966
Soan
##-112
Sims
13/3/2019
##terms
##ehr
##MTC
##kada
Est
994
##116
##ABC
##tzer
36,45
##.512
Sakho
Rosali
Still
35,1%
##iê
24-26/
06/07/201
18/7/2019
NVN
2.560
##mala
Sary
Rubi
9.100
##evski
bảm
03/08/201
Trapp
##388
developer
3/2020
##chain
Beto
977
98.000
lives
chếđộ
##culture
lit
Issac
##cụ
Armin
##Va
10.11
1/5/2016
##750
Peters
11-2013
##.213
##/53
##3.100
Rhode
##.673
17/09/201
Soya
23/09/201
##ogn
##iểu
##220201
22.10
tỷUSD
Near
##FV
Apo
26.11
OCH
PCR
##eath
33,7
057
##Silva
##Neymar
##Tháng
##Riêng
##MHz
##Kỹ
##oE
##Xây
Doba
##Vào
0944
##dur
##ũa
##.574
##rose
##tôn
dộ
send
đợ
##nders
2.050
CAF
Palladi
709
##gini
##noon
Arap
##/1939
##ẫ
##TSBĐ
Nhô
##ssan
##.347
5,99
##/07/2010
##.563
36,9
Robb
Chantha
##744
2,99
70-100
##bashi
##620
##Cách
Ev
##DRC
Khar
27-7-19
794
##ror
1,11
##dddn
Dela
##gai
##lea
14.1
##keting
chuy
Hodeida
MZ
##IIT
Ono
Reuter
##paper
Giovan
##pedia
Caribbe
##.524
lườn
##kê
##6/2011/
##pers
068
##Bolshevik
Abigail
Abkhazia
Arnautovi
Arroyo
Breivik
Diáz
Idlan
MEDLATEC
Marubeni
Patagonia
Rosicky
Tohoku
respective
Debbie
Muscat
Varadkar
Catfish
Charlton
Winehouse
HHHV
Miyagi
Capstone
truffle
Destination
Brunson
Gér
Ebrard
rức
Staphylococcus
cola
MMF
17/2/1979
##tá
delay
Waymo
Know
Saigonbank
sake
Evil
##BN
RFI
38220
flights
TCTK
BTTN
Wipha
SQN
Dune
##wski
08/12/2017
trump
##vê
06/10
12.700
PhoneArena
ĐZ
Personal
Sparks
##place
TDS
##ondo
##abil
##agawa
Malki
93.000
JCG
2,23
0935
##.409
Order
Juniors
##clip
##ilia
Schwartz
Nada
1,89
Shiga
screen
15-25
HY
Luo
##Vina
CHP
22:2
1/1/2012
Skyactiv
Bureau
Mint
##9,99
Sensi
##AIC
792
##akar
##ENSO
Turn
##mund
113,5
ESCO
27-28/2
15/2/2019
##agen
##riz
##cito
##ngôi
24/04/201
Gasto
##79.000
##1987
##họp
Medel
flo
##uckle
##hạng
17/06/201
3,54%
##servation
Cecil
##rg
##ozo
Kira
Khal
Thiel
DSC
##rừng
1060
gmail
28/06/201
##media
20.12
Ilya
##1964
10/1/2019
DNC
Radi
##Kar
##37.000
Baghou
##DIO
##PayTV
##975
talent
##569
CLS
Inspir
031
Thẻn
Kochi
chủđộng
Showa
##870
Toyo
32,9
10-18
Cờn
02/08/201
35,8
##lựa
##vian
19.10
##giấy
##khani
##vậy
1.520
Đát
##eaton
MHI
839
##loo
Text
Erick
Lynne
CCC
##.476
Rag
Door
##ryl
##oat
##Cả
##.329
##dini
mủn
##heid
16/05/201
1.295
##OJ
8/2015.
Huggi
5:2
##wned
##6/2014/
Lone
Gwa
##.487
KF
##PSC
##1/1
bd
##yok
##eiro
##oaz
21:2
##rosa
##EAEU
##butyl
##/9/2008
##suwan
##llicin
Wakefiel
Sadiq
WP
##hiệm
1,48
Mangan
FFC
##pus
Ngò
##ndy
Bungari
Regal
Christoph
##rl
Bianco
Schwarz
##Redmayne
ASEANAPOL
CAATSA
Climate
Khalilzad
Meazza
Moschino
Novosibirsk
Pattinson
Pioneer
Vivienne
Vneconomy
formaldehyt
invitation
FIRST
Mokpo
peaceful
Ariadn
Nubia
Escala
Zaquan
Daisy
Neverland
Kenyatta
VIFOTEC
Borey
Gemini
Violympic
WS
Ferland
Ngổ
EPAY
BRVT
##217
Emoji
Peso
RAL
Ultrabook
KGI
ĐKV
03/2018/
Tugo
9.11
LPI
15/04/201
Cunha
Urê
##MH
Abaa
##áu
nớ
SQL
##baum
Ginger
50-55
121/2013/
Mamma
##TCMN
Kitchen
Idai
##.507
Lếch
Traore
Original
0,24
Paraqua
grand
Gentle
61,5
bẵng
##ukov
##Iwaya
11.800
Groupon
##evic
70-75
source
##West
##sua
##2/2018/
##38.000
SDI
IRIS
11.11
Triền
CHCN
##đo
##9.700
HBV
##AMI
panh
3,000
##senko
here
##TKM
26/2016/
Isma
1130
Massa
##sele
##onia
Gout
13/5/2019
09/11
mém
Vard
##zar
Dú
873
Rec
Bốt
14.11
##monds
bẳn
2,49
##hawk
##-022
1408
##Km
19/05/201
##.841
##hỏi
36,8%
Brit
##eom
QSD
pr
KK
Dra
##istic
##orra
Area
McA
##.122
9,99
Eri
##lake
10/07/2019
phạ
30/12/2017
##iển
91.000
SSL
##.021
Lunar
Lili
##XB
Sùa
Vla
##780
Fonte
Pé
##Thi
Mami
##háu
##lua
##endez
Kristin
25-26/
##.947
OT
7,25
##.109
Steele
Quit
##368
10/02/201
##427
##Bot
##fon
##ection
Avne
##3.5
##Stars
##.091
Cuộ
##gata
##tab
Geoff
HCA
##166
1/10/2016
##arhart
771
##deep
##ERS
Immobil
Jana
##475
Nhậ
CPL
Mic
Abi
##ICE
Muh
mòng
Neel
##10,000
##19.000
##Ke
Barn
##ulia
##rde
Hulu
##Nước
Thình
Thỉ
##Aqsa
##Kitarovic
Andaman
Karnataka
Morgulov
Nostradamus
NovaHill
PCBLGĐ
Ringgit
Scherzinger
Vehicle
Vodka
Vulcan
Yaroslav
melanin
GeForce
RFEF
console
jeep
Desmond
Follow
HBSO
JASSM
Yellowstone
CMTND
Izabel
##7.5
Brabus
Marjor
Masaaki
Blinken
Widow
Anphabe
generation
Riverview
##Bamako
Bourne
Ekaterinburg
Zipline
ruby
combin
Aoki
##ind
Foley
watchOS
MBLand
Onme
Brittany
Latitude
Poiri
Eurogroup
seal
medal
MACC
Technip
apartment
Damas
Giles
06/2016/
Audition
Ilham
Rabo
01/2018/
##989
zin
JCM
##Kon
cadmi
Nuke
Tiểng
##.529
28/7/2017
Luyên
##Ve
##rden
reported
Docs
PiS
UVA
##353
##sham
##Jin
##tun
##.316
11.400
10.700
double
Carly
JK
##ouli
##hip
951
BND
Stea
Mons
Thằn
Dè
45-50
##89.000
##rissa
##BĐS
NGC
Regis
Clint
##nister
30-45
MRA
Baha
##0-40%
##Lưu
Bony
##%-50%
##.418
##abu
DPRK
11/1/2019
SAG
##TNCN
Jardin
##mami
VTS
Boni
Krakat
##ène
Moc
##-1951
Holl
##Sports
##9/1998/
##ees
##hoà
Gerai
1.420
12/13
9.12
58,5
Tét
##hẽ
##Day
Sia
Mulber
##lope
##SME
31/07/201
##vs
##.349
2,17
##hum
##Sản
##161
Shal
UVB
Bogdanov
##càng
##NHV
committee
1.570
##.071
##666
17.10
##ùn
##IO
Giời
##unov
Jat
15/08/201
Tas
Mút
##Ang
02/10
Nàn
fluor
##-85
##tốc
##16.000
##luk
nhom
TMT
##2.00
##David
##Arthur
##Trắng
##quần
##RUN
##xổ
##Gbps
Banana
age
##lĩnh
Dre
##vật
Dock
##Phần
8/3/2019
Lum
Matte
##1982
GMC
##AAM
##OHC
##ader
##0.500
Mika
Burkh
##agi
##league
Qian
##CLB
23/08/201
Io
1.245
10/01/2018
Waters
##1/4
##HCA
1.099
Thon
##319
Ion
koi
Conduct
tole
Marcell
##chel
Oda
Cleverle
##ART
Lend
0934
##rier
PCGD
Chowdhu
1-2-3-4.75
Accelerator
Acoustic
Arthdal
Asamoa
Banerjee
Cordoba
Glôcôm
Humvee
Indevco
Jovetic
Kimberly
Ortiz
Ritchie
Shinnyo
Success
department
eTax
participate
Gyeongsang
Mladenov
Herpes
zeaxant
Palvin
Aegea
Madden
Majd
##Zour
Massimo
##wolle
36,2
##5/2009/
delight
Đùi
##diger
Pharmaceuticals
Skret
Quintero
##Robbins
Gyeong
Janus
Gravit
##954
Fanning
02/2017/
beach
Omah
20:4
##hack
notch
##ringen
31-12-2017
kếhoạch
Ngứa
##SIS
cardio
Every
0,51%
TBR
Gill
##wijk
2015/16
##thiệt
0,32%
##rõ
30-6-2019
Domino
Touring
few
##rush
Lope
##CTV
Kalla
0203
LCG
Xéo
##dani
ACCA
##.803
KSD
DSS
##lino
37,3
##rub
Buen
Sock
stand
hero
24/2014/
2600
##gret
24/06/2019
25,3
cache
Chiwe
Cuban
##ụp
##Yo
15/19
##suda
Dech
Leg
##scott
##anga
37-40
miss
##ortland
##Managed
05/07/201
Consultant
##.642
##248
##arn
beer
##MIN
Kru
0911
Lub
##379
##sumi
Schl
##ssen
##ervo
Vén
Lava
125%
##0-115
##zhan
##thấp
Maxi
Kaz
36,1
##/95
Quấ
2.650
Velo
##ATGT
##Hãy
##8/2015/
ABL
##RES
29,2
##213
##anka
22/04/201
##OPE
Mum
##1976
04/7
##761
##ehir
Mee
basic
##-009
Tera
GOT
25,8%
##IQ
##41.000
##.864
##1,25
##takis
MDA
Aga
5/1/2019
Gac
Learn
04/11
##nghĩ
Brands
option
9/2014.
##miệng
##Quỳnh
##Khoảng
##3,75
##Chiều
Amor
##xăng
##oire
##.074
##ectin
Yukio
##fil
Electro
diplomat
##chuyến
##IMB
##Kit
931
##chú
9-2013
##uôn
##Sinh
Build
##anza
Arseni
##465
Felt
##lz
##hoắt
##IREC
123.000
##430
##-1955
2/2009
##OCS
Tă
29,7
Châng
##Leaks
##ackdoor
##xtin
##4/4
JCC
Radu
40-45
##fele
Nag
##rev
sent
Đì
Aya
award
opportunit
##esolution
##Administration
Beckenbauer
Biwase
Cinnamon
Clijsters
Effect
Exclusive
Fernández
Harbour
Huckabee
Matviyenko
Murmansk
Pfizer
Wolanski
electricity
##BTDTCĐ
Bernama
Graziano
Soluto
Hindustan
Vinacapital
population
Asiamoney
trackpad
##IoT
Cyclo
Jankovic
DKSH
Sarika
##czyk
LHTH
Voyager
Amado
GĐVH
Schwartzman
Duquesn
Roque
poor
Wired
Bartra
Ayala
Sommer
Duarte
Zeiss
HMAS
Attack
Ehome
33,3
Gaku
happy
Luneng
Palau
813
Jica
Hendrick
38,6
Found
##maker
Naz
Bakel
Neva
##eum
##Phúc
##525
12.300
##lova
Xù
Loc
Hòm
Turismo
TATA
drive
opens
##ramer
##eger
Icom
Reds
##umab
LCH
Salih
Welt
Cour
24/4/2017
##tegui
##2/63
1878
1.760
10.100
Championships
1,52
IND
Wow
Pala
##ONA
28,9
##roth
##zor
##kee
Medell
NIA
##orca
Katharin
4/2008
Kiri
0:2
Hunger
##holm
Leopoldo
14.700
Morin
USC
##stafa
sumo
BTG
ZE
Vojtec
cỏn
##tera
DCT
##196
Berli
Elias
28,2
Bọc
##Live
Phỉ
##upp
##lala
Vis
##bate
Mena
18.0
##ancing
Canava
13/05/201
##.879
##hcm
Ngố
Kolo
##NEX
AJC
1.201
Tetsuj
Dub
nitrate
1,5-2,5
##ntech
stay
##8.5
##Aid
sports
##236
19-2016
17.0
##luck
Amur
Techcom
##isk
##14020
##hieu
Cora
1.274
kind
10/7/2017
Sali
##leed
934
##AOK
Agn
##úp
Yoichi
##TTTP
##QLĐĐ
10/11/2018
Lánh
1.030
0982
##dya
02/05/201
##zia
##ILK
##369
##1/5/2018
##-012
##tomo
##Goran
##Toyota
##Online
7.2017
144.000
Mine
Fore
Lụ
04/04/201
##Hệ
##GCC
17.12
##adze
##hydro
114,0
##cup
Delete
3/5/2019
##cket
[...]
